{
  "version": "1.0",
  "truncation": null,
  "padding": null,
  "added_tokens": [
    {
      "id": 0,
      "content": "[PAD]",
      "single_word": false,
      "lstrip": false,
      "rstrip": false,
      "normalized": false,
      "special": true
    },
    {
      "id": 1,
      "content": "[UNK]",
      "single_word": false,
      "lstrip": false,
      "rstrip": false,
      "normalized": false,
      "special": true
    },
    {
      "id": 2,
      "content": "[BOS]",
      "single_word": false,
      "lstrip": false,
      "rstrip": false,
      "normalized": false,
      "special": true
    },
    {
      "id": 3,
      "content": "[EOS]",
      "single_word": false,
      "lstrip": false,
      "rstrip": false,
      "normalized": false,
      "special": true
    }
  ],
  "normalizer": null,
  "pre_tokenizer": {
    "type": "ByteLevel",
    "add_prefix_space": false,
    "trim_offsets": true,
    "use_regex": true
  },
  "post_processor": {
    "type": "TemplateProcessing",
    "single": [
      {
        "SpecialToken": {
          "id": "[BOS]",
          "type_id": 0
        }
      },
      {
        "Sequence": {
          "id": "A",
          "type_id": 0
        }
      },
      {
        "SpecialToken": {
          "id": "[EOS]",
          "type_id": 0
        }
      }
    ],
    "pair": [
      {
        "SpecialToken": {
          "id": "[BOS]",
          "type_id": 0
        }
      },
      {
        "Sequence": {
          "id": "A",
          "type_id": 0
        }
      },
      {
        "SpecialToken": {
          "id": "[EOS]",
          "type_id": 0
        }
      },
      {
        "Sequence": {
          "id": "B",
          "type_id": 1
        }
      },
      {
        "SpecialToken": {
          "id": "[EOS]",
          "type_id": 1
        }
      }
    ],
    "special_tokens": {
      "[BOS]": {
        "id": "[BOS]",
        "ids": [
          2
        ],
        "tokens": [
          "[BOS]"
        ]
      },
      "[EOS]": {
        "id": "[EOS]",
        "ids": [
          3
        ],
        "tokens": [
          "[EOS]"
        ]
      }
    }
  },
  "decoder": {
    "type": "ByteLevel",
    "add_prefix_space": true,
    "trim_offsets": true,
    "use_regex": true
  },
  "model": {
    "type": "BPE",
    "dropout": null,
    "unk_token": "[UNK]",
    "continuing_subword_prefix": null,
    "end_of_word_suffix": null,
    "fuse_unk": false,
    "byte_fallback": false,
    "ignore_merges": false,
    "vocab": {
      "[PAD]": 0,
      "[UNK]": 1,
      "[BOS]": 2,
      "[EOS]": 3,
      "!": 4,
      "\"": 5,
      "$": 6,
      "%": 7,
      "'": 8,
      "(": 9,
      ")": 10,
      "*": 11,
      ",": 12,
      "-": 13,
      ".": 14,
      "0": 15,
      "1": 16,
      "2": 17,
      "3": 18,
      "4": 19,
      "5": 20,
      "6": 21,
      "7": 22,
      "8": 23,
      "9": 24,
      ":": 25,
      ";": 26,
      "?": 27,
      "A": 28,
      "B": 29,
      "C": 30,
      "D": 31,
      "E": 32,
      "F": 33,
      "G": 34,
      "H": 35,
      "I": 36,
      "J": 37,
      "K": 38,
      "L": 39,
      "M": 40,
      "N": 41,
      "O": 42,
      "P": 43,
      "Q": 44,
      "R": 45,
      "S": 46,
      "T": 47,
      "U": 48,
      "V": 49,
      "W": 50,
      "X": 51,
      "Y": 52,
      "Z": 53,
      "a": 54,
      "b": 55,
      "c": 56,
      "d": 57,
      "e": 58,
      "f": 59,
      "g": 60,
      "h": 61,
      "i": 62,
      "j": 63,
      "k": 64,
      "l": 65,
      "m": 66,
      "n": 67,
      "o": 68,
      "p": 69,
      "q": 70,
      "r": 71,
      "s": 72,
      "t": 73,
      "u": 74,
      "v": 75,
      "w": 76,
      "x": 77,
      "y": 78,
      "z": 79,
      "¦": 80,
      "©": 81,
      "Ã": 82,
      "â": 83,
      "Ċ": 84,
      "Ġ": 85,
      "Ģ": 86,
      "ĵ": 87,
      "Ķ": 88,
      "ĺ": 89,
      "Ļ": 90,
      "ľ": 91,
      "Ŀ": 92,
      "Ġt": 93,
      "he": 94,
      "Ġa": 95,
      "Ġs": 96,
      "Ġw": 97,
      "nd": 98,
      "Ġthe": 99,
      "ed": 100,
      "Ġto": 101,
      "Ġb": 102,
      "Ġand": 103,
      "Ġh": 104,
      "in": 105,
      "Ġf": 106,
      "Ġwa": 107,
      "it": 108,
      "re": 109,
      "ou": 110,
      "ĠT": 111,
      "Ġl": 112,
      "Ġd": 113,
      "Ġc": 114,
      "Ġp": 115,
      "Ġhe": 116,
      "ay": 117,
      "Ġm": 118,
      "er": 119,
      "Ġwas": 120,
      "om": 121,
      "im": 122,
      "on": 123,
      "il": 124,
      "at": 125,
      "id": 126,
      "is": 127,
      "ar": 128,
      "Ġsa": 129,
      "Ġn": 130,
      "Ġg": 131,
      "ing": 132,
      "ĠThe": 133,
      "Ġha": 134,
      "en": 135,
      "ĠS": 136,
      "or": 137,
      "an": 138,
      "le": 139,
      "ll": 140,
      "Ġth": 141,
      "ot": 142,
      "Ġher": 143,
      "ily": 144,
      "Ġit": 145,
      "ir": 146,
      "et": 147,
      "am": 148,
      "Lily": 149,
      "Ġu": 150,
      "On": 151,
      "Ġin": 152,
      "ut": 153,
      "ow": 154,
      "Ġpl": 155,
      "ri": 156,
      "Ġ\"": 157,
      "ĠH": 158,
      "Ġday": 159,
      "ver": 160,
      "Ġbe": 161,
      "ĠLily": 162,
      "ce": 163,
      "ith": 164,
      "ig": 165,
      "Ġo": 166,
      "Ġwith": 167,
      "Ġsaid": 168,
      "Ġplay": 169,
      "pp": 170,
      "ĠShe": 171,
      "ĠTim": 172,
      "ck": 173,
      "ld": 174,
      "Ġe": 175,
      "my": 176,
      "Ġhis": 177,
      "oo": 178,
      "Ġy": 179,
      "ĠHe": 180,
      "ĠThey": 181,
      "Ġup": 182,
      "Ġst": 183,
      "Ġthat": 184,
      "Ġon": 185,
      "ke": 186,
      "Ġr": 187,
      "st": 188,
      "ked": 189,
      "Ġmom": 190,
      "Ġshe": 191,
      "ve": 192,
      "nt": 193,
      "itt": 194,
      "very": 195,
      "ĠI": 196,
      "'s": 197,
      "Ġyou": 198,
      "Ġhapp": 199,
      "Ġthey": 200,
      "end": 201,
      "ime": 202,
      "Ġbig": 203,
      "Ġof": 204,
      "Ġfri": 205,
      "ittle": 206,
      "Ġfriend": 207,
      "Ġlittle": 208,
      "se": 209,
      "ent": 210,
      "Ġtime": 211,
      "ad": 212,
      "un": 213,
      "Ġhad": 214,
      "Ġwe": 215,
      "Ġso": 216,
      "her": 217,
      "Ġfor": 218,
      "Ġthere": 219,
      "One": 220,
      "all": 221,
      "ould": 222,
      "Ġwant": 223,
      "Ġhappy": 224,
      "ĠB": 225,
      "Ġnam": 226,
      "Ġsaw": 227,
      "Ġnamed": 228,
      "ved": 229,
      "Ġvery": 230,
      "Ġli": 231,
      "Ġne": 232,
      "Ġbut": 233,
      "Ġlo": 234,
      "es": 235,
      "Once": 236,
      "ch": 237,
      "Ġdo": 238,
      "Ġsh": 239,
      "Ġupon": 240,
      "Ġk": 241,
      "out": 242,
      "ĠM": 243,
      ".\"": 244,
      "ly": 245,
      "ound": 246,
      "Ġnot": 247,
      "'t": 248,
      "Ġwh": 249,
      "ĠTimmy": 250,
      "el": 251,
      "ide": 252,
      "ome": 253,
      "ht": 254,
      "al": 255,
      "Ġre": 256,
      "Ġbo": 257,
      "Ġwent": 258,
      "Ġas": 259,
      "ter": 260,
      "Ġhel": 261,
      "Ġan": 262,
      "Ġfriends": 263,
      "ake": 264,
      "Ġhelp": 265,
      "Ġwere": 266,
      "Ġtoo": 267,
      "Ġsm": 268,
      "Ġwanted": 269,
      "!\"": 270,
      "Ġloved": 271,
      "ack": 272,
      "ore": 273,
      "ird": 274,
      "ĠĊ": 275,
      "irl": 276,
      "Ġtoy": 277,
      "ry": 278,
      "Ġbird": 279,
      "Ġgirl": 280,
      "Ġdid": 281,
      "ĠOne": 282,
      "ra": 283,
      "Ġall": 284,
      "ug": 285,
      "The": 286,
      "ind": 287,
      "Ġhim": 288,
      "ur": 289,
      "ame": 290,
      "Ġloo": 291,
      "Ġcould": 292,
      "rom": 293,
      "ĠIt": 294,
      "Ġj": 295,
      "get": 296,
      "Ġout": 297,
      "way": 298,
      "ec": 299,
      "hen": 300,
      "ted": 301,
      "Ġat": 302,
      "gether": 303,
      "Ġis": 304,
      "Ġtogether": 305,
      "Ġgo": 306,
      "Ġkn": 307,
      "Ġse": 308,
      "ĠA": 309,
      "Ġfun": 310,
      "ĠTom": 311,
      "ain": 312,
      "ard": 313,
      "ul": 314,
      "ic": 315,
      "ood": 316,
      "ue": 317,
      "ark": 318,
      "Ġcan": 319,
      "Ġle": 320,
      "Ġtre": 321,
      "ill": 322,
      "side": 323,
      "ax": 324,
      "?\"": 325,
      "Ġboy": 326,
      "Ġasked": 327,
      "Ġsad": 328,
      "Ġcat": 329,
      "ful": 330,
      "own": 331,
      "hed": 332,
      "Ġback": 333,
      "elt": 334,
      "ght": 335,
      "Ġro": 336,
      "Ġthem": 337,
      "Ġhave": 338,
      "Ġfelt": 339,
      "Ġbec": 340,
      "other": 341,
      "Ġca": 342,
      "Ġstar": 343,
      "Ġtheir": 344,
      "one": 345,
      "Ġsc": 346,
      "ĠMax": 347,
      "Ġal": 348,
      "um": 349,
      "Ġman": 350,
      "Ġcl": 351,
      "Ġfound": 352,
      "Ġsp": 353,
      "hing": 354,
      "Ġdog": 355,
      "round": 356,
      "Ġplayed": 357,
      "ro": 358,
      "Ġlooked": 359,
      "ong": 360,
      "ick": 361,
      "ĠBut": 362,
      "Ġme": 363,
      "Ġsmil": 364,
      "Ġcar": 365,
      "Ġball": 366,
      "Ġpark": 367,
      "Ġstarted": 368,
      "Ġcame": 369,
      "Ġare": 370,
      "Ġfa": 371,
      "Ġtree": 372,
      "Ġfe": 373,
      "omet": 374,
      "ĠF": 375,
      "Ġnew": 376,
      "Ġwould": 377,
      "Ġmommy": 378,
      "ss": 379,
      "Ġex": 380,
      "ared": 381,
      "Ġlike": 382,
      "ie": 383,
      "Ġag": 384,
      "Ġwhat": 385,
      "ure": 386,
      "ĠW": 387,
      "Ġsee": 388,
      "Ġdidn": 389,
      "Ġmake": 390,
      "Ġsomet": 391,
      "ings": 392,
      "Ġno": 393,
      "ried": 394,
      "Ġwor": 395,
      "ade": 396,
      "Ġplaying": 397,
      "dd": 398,
      "ought": 399,
      "ag": 400,
      "ny": 401,
      "Ġsome": 402,
      "op": 403,
      "Ġmu": 404,
      "Ġwhen": 405,
      "Ġhome": 406,
      "ice": 407,
      "ouse": 408,
      "if": 409,
      "You": 410,
      "Ġaway": 411,
      "Ġgot": 412,
      "Ġtoys": 413,
      "Ġthen": 414,
      "Ġsmiled": 415,
      "Ġmade": 416,
      "Ġco": 417,
      "Ġother": 418,
      "Ġgood": 419,
      "ned": 420,
      "ĠL": 421,
      "Ġevery": 422,
      "Ġwal": 423,
      "ty": 424,
      "Ġla": 425,
      "Ġagain": 426,
      "Ġput": 427,
      "king": 428,
      "Ġfind": 429,
      "Ġoutside": 430,
      "au": 431,
      "Ġfrom": 432,
      "ave": 433,
      "ĠBen": 434,
      "Ġaround": 435,
      "ble": 436,
      "ause": 437,
      "Ġsomething": 438,
      "ook": 439,
      "ened": 440,
      "ep": 441,
      "Ġdown": 442,
      "Ġfl": 443,
      "ways": 444,
      "ight": 445,
      "Ġbecause": 446,
      "Ġscared": 447,
      "Ġalways": 448,
      "Ġlear": 449,
      "ally": 450,
      ",\"": 451,
      "Ġliked": 452,
      "Ġwho": 453,
      "Ġsw": 454,
      "uck": 455,
      "Ġthings": 456,
      "ell": 457,
      "Ġthought": 458,
      "oud": 459,
      "Ġran": 460,
      "Ġget": 461,
      "ĠSue": 462,
      "udd": 463,
      "Ġdec": 464,
      "ĠJ": 465,
      "ret": 466,
      "Ġtook": 467,
      "ust": 468,
      "Tim": 469,
      "Ġmy": 470,
      "ach": 471,
      "Ġsmall": 472,
      "Ġch": 473,
      "Ġab": 474,
      "ant": 475,
      "Ġkne": 476,
      "Ġknow": 477,
      "Ġeat": 478,
      "as": 479,
      "Ġhouse": 480,
      "ited": 481,
      "Ġabout": 482,
      "Ġtried": 483,
      "pl": 484,
      "Ġcare": 485,
      "Ġtold": 486,
      "ank": 487,
      "ist": 488,
      "fter": 489,
      "Th": 490,
      "ided": 491,
      "ĠSam": 492,
      "Ġbl": 493,
      "Ġdecided": 494,
      "pped": 495,
      "Ġyour": 496,
      "Ġany": 497,
      "Ġknew": 498,
      "Ġint": 499,
      "Ġpr": 500,
      "Ġsay": 501,
      "fe": 502,
      "Ġbr": 503,
      "ous": 504,
      "Ġlearned": 505,
      "ite": 506,
      "ish": 507,
      "ile": 508,
      "Ġlot": 509,
      "ĠYou": 510,
      "qu": 511,
      "ĠFrom": 512,
      "pot": 513,
      "Ġexc": 514,
      "Ġpret": 515,
      "Ġta": 516,
      "Ġdad": 517,
      "Ġbu": 518,
      "ers": 519,
      "Ġpo": 520,
      "udden": 521,
      "nder": 522,
      "Ġmuch": 523,
      "Ġv": 524,
      "uddenly": 525,
      "are": 526,
      "Ġlaug": 527,
      "ise": 528,
      "ive": 529,
      "Ġke": 530,
      "ob": 531,
      "Ġmore": 532,
      "Ġbox": 533,
      "Ġfeel": 534,
      "ace": 535,
      "Ġwill": 536,
      "Ġsun": 537,
      "Ġlived": 538,
      "uc": 539,
      "Ġhug": 540,
      "oth": 541,
      "ump": 542,
      "ĠSpot": 543,
      "ven": 544,
      "Ġinto": 545,
      "Ġone": 546,
      "ia": 547,
      "Ġgra": 548,
      "Ġshow": 549,
      "Ġexcited": 550,
      "Ġgave": 551,
      "ĠHer": 552,
      "ate": 553,
      "Ġun": 554,
      "Ġneed": 555,
      "Ġhow": 556,
      "Ġroom": 557,
      "Ġho": 558,
      "ap": 559,
      "Ġinside": 560,
      "urp": 561,
      "etter": 562,
      "Ġwater": 563,
      "Ġpick": 564,
      "ort": 565,
      "Ġtr": 566,
      "Ġmany": 567,
      "Ġtake": 568,
      "Ġcouldn": 569,
      "Ġpe": 570,
      "Ġif": 571,
      "iz": 572,
      "our": 573,
      "Ġsk": 574,
      "Ġgre": 575,
      "ĠSo": 576,
      "Ġlook": 577,
      "dy": 578,
      "ĠD": 579,
      "Ġbecame": 580,
      "ĠAnd": 581,
      "Ġpu": 582,
      "Ġpretty": 583,
      "Ġlong": 584,
      "Ġop": 585,
      "Ġbest": 586,
      "Ġcle": 587,
      "urt": 588,
      "Ġover": 589,
      "Wh": 590,
      "But": 591,
      "Ġthan": 592,
      "em": 593,
      "Ġjust": 594,
      "Ġfi": 595,
      "Ġrun": 596,
      "lf": 597,
      "Ġthis": 598,
      "Ġbetter": 599,
      "Ġim": 600,
      "urpr": 601,
      "Ġboth": 602,
      "Ġred": 603,
      "Ġmo": 604,
      "sed": 605,
      "here": 606,
      "Ġsurpr": 607,
      "ged": 608,
      "ised": 609,
      "lew": 610,
      "iny": 611,
      "ĠE": 612,
      "Ġstr": 613,
      "ge": 614,
      "Ġkind": 615,
      "Ġbear": 616,
      "Ġend": 617,
      "Yes": 618,
      "Ġfast": 619,
      "ucy": 620,
      "Ġsl": 621,
      "ma": 622,
      "Ġgr": 623,
      "Ġeven": 624,
      "bb": 625,
      "Ġcareful": 626,
      "ink": 627,
      "Ġflow": 628,
      "Ġwat": 629,
      "Ġlaughed": 630,
      "ched": 631,
      "imal": 632,
      "Ġdre": 633,
      "Ġanimal": 634,
      "Ġfly": 635,
      "ĠMia": 636,
      "ess": 637,
      "Ġtow": 638,
      "ĠHis": 639,
      "Ġunder": 640,
      "ĠMom": 641,
      "Ġnice": 642,
      "ber": 643,
      "Ġor": 644,
      "Ġjump": 645,
      "Ġimp": 646,
      "Ġnever": 647,
      "Ġclean": 648,
      "Ġtry": 649,
      "âĢ": 650,
      "Ġlist": 651,
      "Can": 652,
      "Ġsn": 653,
      "Ġrock": 654,
      "Ġsays": 655,
      "ion": 656,
      "Ġfo": 657,
      "ving": 658,
      "Ġold": 659,
      "As": 660,
      "Ġheard": 661,
      "Ġby": 662,
      "Ġhappened": 663,
      "Ġclo": 664,
      "pec": 665,
      "igh": 666,
      "Ġen": 667,
      "Ġfore": 668,
      "Ġwalked": 669,
      "They": 670,
      "ĠLucy": 671,
      "ine": 672,
      "Ġsafe": 673,
      "ct": 674,
      "Mom": 675,
      "Ġcom": 676,
      "ied": 677,
      "ft": 678,
      "ĠBob": 679,
      "Ġproud": 680,
      "Ġfam": 681,
      "Ġhurt": 682,
      "ase": 683,
      "Thank": 684,
      "Ġanimals": 685,
      "Ġcol": 686,
      "Ġte": 687,
      "Ġhand": 688,
      "Ġdon": 689,
      "Ġri": 690,
      "Ġflew": 691,
      "Ġfood": 692,
      "orry": 693,
      "illy": 694,
      "'m": 695,
      "oug": 696,
      "Ġeach": 697,
      "Ġide": 698,
      "Ġdan": 699,
      "ough": 700,
      "Ġstor": 701,
      "Ġlet": 702,
      "kay": 703,
      "Ġlots": 704,
      "ady": 705,
      "Ġsky": 706,
      "Ġwhile": 707,
      "Ġpic": 708,
      "Ġrem": 709,
      "Ġbea": 710,
      "Ġidea": 711,
      "Ġshare": 712,
      "Ġshiny": 713,
      "Ġsorry": 714,
      "Ġche": 715,
      "ĠWhen": 716,
      "Ġits": 717,
      "Ġrepl": 718,
      "Ġpicked": 719,
      "Ġfish": 720,
      "ial": 721,
      "Ġground": 722,
      "Ġtur": 723,
      "ara": 724,
      "ff": 725,
      "ĠWe": 726,
      "Timmy": 727,
      "Tom": 728,
      "ies": 729,
      "ecial": 730,
      "Ġspecial": 731,
      "imb": 732,
      "Ġbad": 733,
      "Ġclimb": 734,
      "and": 735,
      "Ġfamily": 736,
      "Ġcome": 737,
      "ning": 738,
      "Ġloud": 739,
      "Ġreal": 740,
      "Ġreplied": 741,
      "ture": 742,
      "gry": 743,
      "ex": 744,
      "rm": 745,
      "Ġhugged": 746,
      "Ġunt": 747,
      "Ġforest": 748,
      "Ġra": 749,
      "Ġthanked": 750,
      "Ġwind": 751,
      "more": 752,
      "Ġoff": 753,
      "Ġimport": 754,
      "Ġanymore": 755,
      "Ġbeaut": 756,
      "Ġbro": 757,
      "Ġway": 758,
      "ip": 759,
      "ock": 760,
      "self": 761,
      "Ġad": 762,
      "nn": 763,
      "Ġnear": 764,
      "Ġhard": 765,
      "ool": 766,
      "by": 767,
      "Ġimportant": 768,
      "Ġstill": 769,
      "eet": 770,
      "Ġuntil": 771,
      "Ġhelped": 772,
      "Ġtw": 773,
      "ĠTh": 774,
      "iful": 775,
      "Ġcu": 776,
      "ople": 777,
      "Ġbeautiful": 778,
      "unny": 779,
      "Ġlove": 780,
      "Ġsurprised": 781,
      "Ġbeing": 782,
      "ild": 783,
      "arden": 784,
      "Ġgarden": 785,
      "pected": 786,
      "Ġfell": 787,
      "raw": 788,
      "Ġqu": 789,
      "ized": 790,
      "sh": 791,
      "ummy": 792,
      "Ġwalk": 793,
      "vent": 794,
      "xt": 795,
      "Ġnext": 796,
      "expected": 797,
      "Ġunexpected": 798,
      "Ġpeople": 799,
      "Ġfar": 800,
      "Ġgive": 801,
      "Ġcolor": 802,
      "Ġgl": 803,
      "Ġmag": 804,
      "Ġkeep": 805,
      "hes": 806,
      "Ġcake": 807,
      "Ġpicture": 808,
      "Ġtal": 809,
      "Ġnow": 810,
      "Ġcre": 811,
      "Ġshould": 812,
      "ak": 813,
      "Ġshowed": 814,
      "After": 815,
      "Ġexpl": 816,
      "vor": 817,
      "Ġcall": 818,
      "Ġcry": 819,
      "Ġcon": 820,
      "Ġwo": 821,
      "ember": 822,
      "Ġpar": 823,
      "Ġapp": 824,
      "Ġhigh": 825,
      "Ġgoing": 826,
      "Ġma": 827,
      "Ġafter": 828,
      "ĠSuddenly": 829,
      "Ġfavor": 830,
      "ger": 831,
      "Ġbook": 832,
      "Ġfavorite": 833,
      "nna": 834,
      "th": 835,
      "Ġfin": 836,
      "Ġsqu": 837,
      "Ġremember": 838,
      "Let": 839,
      "ĠThen": 840,
      "Ġgreat": 841,
      "Ġlost": 842,
      "Ġbra": 843,
      "Ġstore": 844,
      "Ġcook": 845,
      "ull": 846,
      "Ġbug": 847,
      "age": 848,
      "Ġfr": 849,
      "rel": 850,
      "fore": 851,
      "Ġopened": 852,
      "Ġac": 853,
      "Ġam": 854,
      "Ġstrong": 855,
      "Ġown": 856,
      "Ġlisten": 857,
      "Ġstay": 858,
      "ished": 859,
      "ary": 860,
      "Ġbed": 861,
      "It": 862,
      "Ġever": 863,
      "Ġdoor": 864,
      "pt": 865,
      "oon": 866,
      "Ġjo": 867,
      "When": 868,
      "Ġpa": 869,
      "ĠBenny": 870,
      "Ġwhere": 871,
      "Ġbefore": 872,
      "Ġfix": 873,
      "Ġflowers": 874,
      "Ġsto": 875,
      "Suddenly": 876,
      "Ġboat": 877,
      "Ġmagic": 878,
      "No": 879,
      "What": 880,
      "ĠJack": 881,
      "Ġwatch": 882,
      "Ġbutter": 883,
      "Ġblue": 884,
      "Ġtruck": 885,
      "be": 886,
      "Ġyummy": 887,
      "Ġokay": 888,
      "Ġworry": 889,
      "leep": 890,
      "Ġate": 891,
      "Ġbunny": 892,
      "ĠLet": 893,
      "Don": 894,
      "Ġstory": 895,
      "Ġnoise": 896,
      "uff": 897,
      "Ġplace": 898,
      "Ġmor": 899,
      "lease": 900,
      "Ġwr": 901,
      "Ġrain": 902,
      "Ġleave": 903,
      "ĠSara": 904,
      "Ġrealized": 905,
      "Ġmet": 906,
      "ater": 907,
      "imes": 908,
      "owl": 909,
      "Ġadvent": 910,
      "Ġwait": 911,
      "thing": 912,
      "Ġsquir": 913,
      "ĠEvery": 914,
      "ĠN": 915,
      "Ġdoll": 916,
      "Ġsquirrel": 917,
      "ĠR": 918,
      "eddy": 919,
      "les": 920,
      "ĠWh": 921,
      "That": 922,
      "Ġde": 923,
      "Ġgame": 924,
      "Ġcatch": 925,
      "Ġbutterf": 926,
      "ĠAmy": 927,
      "Ġdress": 928,
      "Ġbre": 929,
      "Ġcalled": 930,
      "ting": 931,
      "Ġhappily": 932,
      "ĠBilly": 933,
      "ane": 934,
      "Ġtra": 935,
      "Ġfro": 936,
      "Ġsand": 937,
      "so": 938,
      "Ġstick": 939,
      "Ġeveryone": 940,
      "able": 941,
      "Ġothers": 942,
      "ught": 943,
      "Ġalso": 944,
      "Ġneeded": 945,
      "ĠP": 946,
      "bbit": 947,
      "Ġbrave": 948,
      "ndma": 949,
      "Ġkid": 950,
      "Ġmon": 951,
      "ens": 952,
      "Her": 953,
      "Ġface": 954,
      "irst": 955,
      "Ġwarm": 956,
      "Ġstopped": 957,
      "Ġkept": 958,
      "uch": 959,
      "ious": 960,
      "Ġmouse": 961,
      "Ġadventure": 962,
      "Ġdif": 963,
      "ree": 964,
      "Ġsing": 965,
      "Ġdraw": 966,
      "ired": 967,
      "Ġbutterfly": 968,
      "Ġsoon": 969,
      "Ġfrog": 970,
      "Ġsat": 971,
      "Ġrabbit": 972,
      "ol": 973,
      "Ġjumped": 974,
      "oy": 975,
      "Ġey": 976,
      "Ġfeeling": 977,
      "ĠC": 978,
      "Ġwork": 979,
      "led": 980,
      "Ġpie": 981,
      "Ġhear": 982,
      "Ġcont": 983,
      "Ġright": 984,
      "ĠIn": 985,
      "Ġwalking": 986,
      "Ġuse": 987,
      "Ġsometimes": 988,
      "Ġslide": 989,
      "ken": 990,
      "ppy": 991,
      "Ġmean": 992,
      "Ġpain": 993,
      "Ġour": 994,
      "Ġused": 995,
      "Ġnight": 996,
      "Ġbel": 997,
      "ued": 998,
      "Ġthr": 999,
      "Ġkids": 1000,
      "zy": 1001,
      "Ġopen": 1002,
      "Ġdin": 1003,
      "Ġrest": 1004,
      "iced": 1005,
      "Ġlady": 1006,
      "Ġremembered": 1007,
      "Ġhaving": 1008,
      "Wow": 1009,
      "dded": 1010,
      "uffy": 1011,
      "Ġforg": 1012,
      "Ġtri": 1013,
      "Ġice": 1014,
      "'re": 1015,
      "joy": 1016,
      "gan": 1017,
      "Ġlion": 1018,
      "Ġsmile": 1019,
      "itc": 1020,
      "Ġsure": 1021,
      "Ġtired": 1022,
      "Ġsoft": 1023,
      "ner": 1024,
      "Ġsleep": 1025,
      "He": 1026,
      "Ġcr": 1027,
      "uit": 1028,
      "ĠCan": 1029,
      "Look": 1030,
      "Ġcut": 1031,
      "ĠSally": 1032,
      "Ġfire": 1033,
      "Ġfirst": 1034,
      "day": 1035,
      "ĠK": 1036,
      "ath": 1037,
      "Ġprom": 1038,
      "Ġeyes": 1039,
      "ĠAnna": 1040,
      "ĠFl": 1041,
      "Ġangry": 1042,
      "Ġkitc": 1043,
      "fere": 1044,
      "Ġkitchen": 1045,
      "Mommy": 1046,
      "ph": 1047,
      "Ġask": 1048,
      "Ġdiffere": 1049,
      "Ġdis": 1050,
      "Ġus": 1051,
      "Ġbrother": 1052,
      "ange": 1053,
      "From": 1054,
      "air": 1055,
      "Ġhole": 1056,
      "ount": 1057,
      "Ġwatched": 1058,
      "ster": 1059,
      "Ġenjoy": 1060,
      "Ġmess": 1061,
      "que": 1062,
      "itty": 1063,
      "Ġbirds": 1064,
      "Ġblock": 1065,
      "Ġbuy": 1066,
      "us": 1067,
      "Ġwear": 1068,
      "Ġdel": 1069,
      "Ġar": 1070,
      "Ġflower": 1071,
      "Ġlooking": 1072,
      "Ġcontin": 1073,
      "Ġdir": 1074,
      "Ġtwo": 1075,
      "Hi": 1076,
      "Ġclos": 1077,
      "Ġhead": 1078,
      "Ġnodded": 1079,
      "Ġflo": 1080,
      "Ġprin": 1081,
      "ĠMr": 1082,
      "Ġsound": 1083,
      "llow": 1084,
      "Ġtast": 1085,
      "ĠDo": 1086,
      "Ġfarm": 1087,
      "ng": 1088,
      "Ġpiece": 1089,
      "Ġba": 1090,
      "Ġcontinued": 1091,
      "Ġduck": 1092,
      "Ġz": 1093,
      "Ġnoticed": 1094,
      "ĠJo": 1095,
      "Ġparty": 1096,
      "Ġmis": 1097,
      "Ġhands": 1098,
      "Ġhat": 1099,
      "ient": 1100,
      "Ġbeh": 1101,
      "Ġdifferent": 1102,
      "ello": 1103,
      "ear": 1104,
      "Ġyell": 1105,
      "Hello": 1106,
      "Ġgreen": 1107,
      "Ġhid": 1108,
      "Ġmaking": 1109,
      "Ġturned": 1110,
      "Ġmoral": 1111,
      "Ġsweet": 1112,
      "Ġfollow": 1113,
      "Ġswim": 1114,
      "Ġbroken": 1115,
      "Ġbag": 1116,
      "Ġcold": 1117,
      "Ġtown": 1118,
      "Ġgrandma": 1119,
      "Ben": 1120,
      "Ġhot": 1121,
      "Ġama": 1122,
      "Ġcried": 1123,
      "Ġread": 1124,
      "Ġamaz": 1125,
      "Ġhun": 1126,
      "Ġcool": 1127,
      "oney": 1128,
      "Ġworked": 1129,
      "Ġfunny": 1130,
      "Ġtell": 1131,
      "reed": 1132,
      "Ġpond": 1133,
      "ect": 1134,
      "ĠFluffy": 1135,
      "ident": 1136,
      "ĠG": 1137,
      "Ġhop": 1138,
      "Ġtall": 1139,
      "We": 1140,
      "Ġtop": 1141,
      "Ġcars": 1142,
      "Ġtrees": 1143,
      "Ġacc": 1144,
      "Ġbri": 1145,
      "Ġturn": 1146,
      "Ġquick": 1147,
      "Ġdro": 1148,
      "Ġrace": 1149,
      "aybe": 1150,
      "lled": 1151,
      "Ġcand": 1152,
      "Ġcream": 1153,
      "ĠAs": 1154,
      "Ġscary": 1155,
      "Ġplease": 1156,
      "Ġthink": 1157,
      "Ġclimbed": 1158,
      "Ġcookies": 1159,
      "âĢľ": 1160,
      "Ġdark": 1161,
      "ered": 1162,
      "where": 1163,
      "Ġsong": 1164,
      "ĠFin": 1165,
      "Ġdaddy": 1166,
      "Ġaccident": 1167,
      "hn": 1168,
      "Ġsho": 1169,
      "Max": 1170,
      "orn": 1171,
      "âĢĿ": 1172,
      "Ġdr": 1173,
      "Ġrunning": 1174,
      "Ġtalk": 1175,
      "Ġagreed": 1176,
      "Ġcuri": 1177,
      "Ġgrass": 1178,
      "Ġblocks": 1179,
      "weet": 1180,
      "Ġexplore": 1181,
      "Ġbuild": 1182,
      "Ġowner": 1183,
      "Ġshared": 1184,
      "Ġper": 1185,
      "Ġthing": 1186,
      "Ġru": 1187,
      "ike": 1188,
      "Ġhelping": 1189,
      "Ġcurious": 1190,
      "Ġhungry": 1191,
      "Ġdinner": 1192,
      "Ġfloor": 1193,
      "Ġmove": 1194,
      "Then": 1195,
      "pe": 1196,
      "ĠKitty": 1197,
      "ced": 1198,
      "oup": 1199,
      "Ġtable": 1200,
      "Ġsurprise": 1201,
      "Ġstop": 1202,
      "Ġunderst": 1203,
      "Ġquickly": 1204,
      "bo": 1205,
      "Ġfair": 1206,
      "ĠMommy": 1207,
      "Ġlistened": 1208,
      "Ġanother": 1209,
      "lly": 1210,
      "Ġfriendly": 1211,
      "ĠNow": 1212,
      "Ġwrong": 1213,
      "Ġcoming": 1214,
      "Ġcloser": 1215,
      "Ġballoon": 1216,
      "Ġbehind": 1217,
      "Ġteddy": 1218,
      "Ġdream": 1219,
      "Ġbroke": 1220,
      "Ġdri": 1221,
      "Ġswing": 1222,
      "ign": 1223,
      "Ġready": 1224,
      "Ġmus": 1225,
      "Ġpretend": 1226,
      "Ġleaves": 1227,
      "Ġbrought": 1228,
      "Ġmight": 1229,
      "Ġpap": 1230,
      "nts": 1231,
      "Ġforgot": 1232,
      "Ġhere": 1233,
      "Ġleft": 1234,
      "Ġdance": 1235,
      "Ġshar": 1236,
      "Ġbar": 1237,
      "Ġbright": 1238,
      "Later": 1239,
      "ittens": 1240,
      "At": 1241,
      "Ġhill": 1242,
      "Ġherself": 1243,
      "Ġlearn": 1244,
      "key": 1245,
      "ather": 1246,
      "cess": 1247,
      "asure": 1248,
      "gg": 1249,
      "Ġowl": 1250,
      "Ġpromised": 1251,
      "Ġaccidentally": 1252,
      "oice": 1253,
      "Ġhimself": 1254,
      "ucky": 1255,
      "Ġtrying": 1256,
      "bye": 1257,
      "sy": 1258,
      "Ġdoing": 1259,
      "ĠThis": 1260,
      "ĠTweet": 1261,
      "os": 1262,
      "Ġwood": 1263,
      "Ġhide": 1264,
      "Ġsmell": 1265,
      "So": 1266,
      "Ġhair": 1267,
      "Ġcla": 1268,
      "Ġthrough": 1269,
      "bbed": 1270,
      "row": 1271,
      "Ġflying": 1272,
      "Ġvis": 1273,
      "Ġtouch": 1274,
      "Ġgone": 1275,
      "Ġstuck": 1276,
      "ĠâĢľ": 1277,
      "Ġride": 1278,
      "Why": 1279,
      "Ġwet": 1280,
      "Ġyard": 1281,
      "ĠAfter": 1282,
      "Ġshout": 1283,
      "Ġsunny": 1284,
      "Ġfull": 1285,
      "Ġhas": 1286,
      "Ġlight": 1287,
      "Ġnest": 1288,
      "Ġfruit": 1289,
      "Ġste": 1290,
      "stle": 1291,
      "Ġhold": 1292,
      "Ġgrate": 1293,
      "oom": 1294,
      "ards": 1295,
      "Ġwhy": 1296,
      "Ġcolors": 1297,
      "ix": 1298,
      "Ġyellow": 1299,
      "ac": 1300,
      "Ġtail": 1301,
      "Ġgrateful": 1302,
      "Ġanything": 1303,
      "ached": 1304,
      "Ġfinished": 1305,
      "Ġdelic": 1306,
      "Ġfall": 1307,
      "Ġclose": 1308,
      "Ġperf": 1309,
      "Ġpictures": 1310,
      "Ġtight": 1311,
      "icy": 1312,
      "Ġeating": 1313,
      "Ġless": 1314,
      "Oh": 1315,
      "isy": 1316,
      "Ġwonder": 1317,
      "Ġmusic": 1318,
      "ation": 1319,
      "Ġglad": 1320,
      "Ġtrain": 1321,
      "Ġplan": 1322,
      "Ġpuppy": 1323,
      "Ġpaper": 1324,
      "Ġtreat": 1325,
      "ask": 1326,
      "Ġworld": 1327,
      "Ġbreak": 1328,
      "set": 1329,
      "Ġdirty": 1330,
      "Ġcra": 1331,
      "ĠThat": 1332,
      "der": 1333,
      "Ġonly": 1334,
      "Ġreally": 1335,
      "Ġcandy": 1336,
      "Ġgoodbye": 1337,
      "ield": 1338,
      "rot": 1339,
      "Ġwished": 1340,
      "Okay": 1341,
      "Ġsomeone": 1342,
      "Ġbegan": 1343,
      "Ġbeen": 1344,
      "Ġsit": 1345,
      "Ġve": 1346,
      "Ġwin": 1347,
      "av": 1348,
      "co": 1349,
      "Ġswam": 1350,
      "Ġapple": 1351,
      "Ġmar": 1352,
      "Ġwindow": 1353,
      "af": 1354,
      "Ġpink": 1355,
      "rag": 1356,
      "ott": 1357,
      "Ġele": 1358,
      "Ġcolorful": 1359,
      "Ġseen": 1360,
      "Ġvisit": 1361,
      "ssed": 1362,
      "Ġvoice": 1363,
      "Ġpro": 1364,
      "Ġland": 1365,
      "ich": 1366,
      "red": 1367,
      "Ġgrow": 1368,
      "Ġeverywhere": 1369,
      "Ġdoes": 1370,
      "Ġmat": 1371,
      "Ġslow": 1372,
      "Ġwon": 1373,
      "zz": 1374,
      "Ġpare": 1375,
      "Ġthre": 1376,
      "Ġreached": 1377,
      "Ġmoment": 1378,
      "Ġwaited": 1379,
      "Ġmix": 1380,
      "Ġsnow": 1381,
      "Ġnap": 1382,
      "othes": 1383,
      "Ġclothes": 1384,
      "ained": 1385,
      "ĠDad": 1386,
      "Ġname": 1387,
      "Ġdone": 1388,
      "ĠSarah": 1389,
      "Ġcrying": 1390,
      "She": 1391,
      "room": 1392,
      "Ġyes": 1393,
      "Ġmonkey": 1394,
      "Ġear": 1395,
      "ĠO": 1396,
      "ĠMittens": 1397,
      "Ġpat": 1398,
      "Ġset": 1399,
      "Ġcount": 1400,
      "Ġtower": 1401,
      "Ġheld": 1402,
      "Ġcastle": 1403,
      "'ll": 1404,
      "thy": 1405,
      "Ġlesson": 1406,
      "ower": 1407,
      "Ġthank": 1408,
      "Ġair": 1409,
      "Ġpol": 1410,
      "ctor": 1411,
      "Ġbeach": 1412,
      "Ġwise": 1413,
      "Ġupset": 1414,
      "Ġalone": 1415,
      "Ġhappen": 1416,
      "Ġhopped": 1417,
      "Ġcomp": 1418,
      "Ġbit": 1419,
      "illed": 1420,
      "Ġbran": 1421,
      "ze": 1422,
      "Ġeverything": 1423,
      "Ġlaugh": 1424,
      "avy": 1425,
      "Ġfight": 1426,
      "Ġsail": 1427,
      "Ġsear": 1428,
      "Ġpus": 1429,
      "Ġbott": 1430,
      "gle": 1431,
      "ons": 1432,
      "Ġju": 1433,
      "Ġchild": 1434,
      "Ġfinally": 1435,
      "ries": 1436,
      "Ġpre": 1437,
      "Ġreach": 1438,
      "Ġfox": 1439,
      "Ġtreasure": 1440,
      "Ġpot": 1441,
      "Sure": 1442,
      "orm": 1443,
      "Ġdanger": 1444,
      "Ġfollowed": 1445,
      "Ġgent": 1446,
      "Ġje": 1447,
      "ĠEveryone": 1448,
      "Ġparents": 1449,
      "Ġarm": 1450,
      "Ġenjoyed": 1451,
      "Ġwasn": 1452,
      "Ġbooks": 1453,
      "art": 1454,
      "Ġwoke": 1455,
      "Ġpaint": 1456,
      "ance": 1457,
      "Ġgrabbed": 1458,
      "Ġcup": 1459,
      "Ġbike": 1460,
      "Ġmoney": 1461,
      "Ġunderstand": 1462,
      "ister": 1463,
      "ĠJohn": 1464,
      "Ġarri": 1465,
      "ins": 1466,
      "Ġjob": 1467,
      "ste": 1468,
      "Ġres": 1469,
      "Ġgetting": 1470,
      "Ġtowards": 1471,
      "Ġbite": 1472,
      "Ġhit": 1473,
      "Ġwag": 1474,
      "Ġsister": 1475,
      "Ġspot": 1476,
      "Ġmonster": 1477,
      "âĢĻ": 1478,
      "Ġque": 1479,
      "Ġcarrot": 1480,
      "This": 1481,
      "ast": 1482,
      "Ġdelicious": 1483,
      "ames": 1484,
      "Ġwoods": 1485,
      "stead": 1486,
      "Ġsoup": 1487,
      "Ġfree": 1488,
      "ash": 1489,
      "Anna": 1490,
      "Ġbigger": 1491,
      "Ġplant": 1492,
      "Ġshouted": 1493,
      "less": 1494,
      "de": 1495,
      "phant": 1496,
      "oc": 1497,
      "Ġword": 1498,
      "Ġriver": 1499,
      "ream": 1500,
      "Ġcaught": 1501,
      "Ġpieces": 1502,
      "man": 1503,
      "Ġspl": 1504,
      "Sam": 1505,
      "Ġwithout": 1506,
      "Ġbor": 1507,
      "Do": 1508,
      "Ġsnack": 1509,
      "Ġjoin": 1510,
      "bor": 1511,
      "Ġpen": 1512,
      "Ġmust": 1513,
      "ub": 1514,
      "Ġheavy": 1515,
      "Ġswings": 1516,
      "Ġsandw": 1517,
      "Sue": 1518,
      "Ġpulled": 1519,
      "mb": 1520,
      "His": 1521,
      "Ġchair": 1522,
      "Ġarrived": 1523,
      "Ġexplained": 1524,
      "llie": 1525,
      "Ġrel": 1526,
      "Ġelephant": 1527,
      "Ġbowl": 1528,
      "Ġpet": 1529,
      "cy": 1530,
      "up": 1531,
      "Ġmother": 1532,
      "ves": 1533,
      "Ġlooks": 1534,
      "Ġblew": 1535,
      "Ġkey": 1536,
      "Ġenough": 1537,
      "aught": 1538,
      "ĠAll": 1539,
      "Ġdeep": 1540,
      "ere": 1541,
      "outh": 1542,
      "Ġmouth": 1543,
      "Ġbaby": 1544,
      "aisy": 1545,
      "Ġdry": 1546,
      "Ġgames": 1547,
      "Ġworried": 1548,
      "Ġfur": 1549,
      "Ġdangerous": 1550,
      "Ġes": 1551,
      "ey": 1552,
      "Ġant": 1553,
      "Ġpack": 1554,
      "Ġgif": 1555,
      "Ġperfect": 1556,
      "In": 1557,
      "cle": 1558,
      "itting": 1559,
      "ully": 1560,
      "Ġtiny": 1561,
      "unch": 1562,
      "althy": 1563,
      "Ġfarmer": 1564,
      "Ġbath": 1565,
      "ĠThere": 1566,
      "Ġthree": 1567,
      "ĠTommy": 1568,
      "Ġdoctor": 1569,
      "Ġstayed": 1570,
      "let": 1571,
      "Ġbelong": 1572,
      "fully": 1573,
      "Sara": 1574,
      "Ġblank": 1575,
      "Ġprincess": 1576,
      "Ġneigh": 1577,
      "ĠJane": 1578,
      "Ġfield": 1579,
      "Ġblanket": 1580,
      "iet": 1581,
      "Ġsharing": 1582,
      "ated": 1583,
      "amp": 1584,
      "Ġpushed": 1585,
      "Ġel": 1586,
      "ĠWhat": 1587,
      "fort": 1588,
      "Ġfairy": 1589,
      "Ġcloud": 1590,
      "Ġquiet": 1591,
      "Ġelse": 1592,
      "eared": 1593,
      "lue": 1594,
      "Ġwall": 1595,
      "og": 1596,
      "ek": 1597,
      "ocked": 1598,
      "ming": 1599,
      "Ġleg": 1600,
      "Ġtom": 1601,
      "Ġjar": 1602,
      "iver": 1603,
      "Ġwouldn": 1604,
      "ĠBobo": 1605,
      "cket": 1606,
      "Ġlate": 1607,
      "ier": 1608,
      "Ġpig": 1609,
      "pping": 1610,
      "Ġwhite": 1611,
      "Ġsilly": 1612,
      "ĠEm": 1613,
      "Ġclosed": 1614,
      "Ġthrew": 1615,
      "me": 1616,
      "iss": 1617,
      "ence": 1618,
      "oun": 1619,
      "Ġblack": 1620,
      "Ġsnake": 1621,
      "Ġwaved": 1622,
      "Ġstorm": 1623,
      "Ġneighbor": 1624,
      "ire": 1625,
      "Ġsitting": 1626,
      "Ġpoin": 1627,
      "Ġside": 1628,
      "Ġsea": 1629,
      "Ġgu": 1630,
      "Ġamazed": 1631,
      "Ġbee": 1632,
      "itten": 1633,
      "ĠSammy": 1634,
      "Just": 1635,
      "Ġsees": 1636,
      "Ġatt": 1637,
      "Ġbring": 1638,
      "Ġdrink": 1639,
      "Ġbottle": 1640,
      "Ġdropped": 1641,
      "olly": 1642,
      "Ġegg": 1643,
      "Ġdrag": 1644,
      "Ġneck": 1645,
      "Ġcarefully": 1646,
      "Ġadventures": 1647,
      "Ġwell": 1648,
      "Ġcrab": 1649,
      "Ġcour": 1650,
      "cked": 1651,
      "Ġsmart": 1652,
      "Ġfew": 1653,
      "come": 1654,
      "ĠBlue": 1655,
      "chool": 1656,
      "Ġdanced": 1657,
      "Ġbranch": 1658,
      "Ġshoes": 1659,
      "Mia": 1660,
      "Ġamazing": 1661,
      "ord": 1662,
      "Ġbask": 1663,
      "Ġbasket": 1664,
      "yard": 1665,
      "board": 1666,
      "ray": 1667,
      "Ġbackyard": 1668,
      "vel": 1669,
      "uddy": 1670,
      "Ġmail": 1671,
      "Ġclapped": 1672,
      "Ġcourse": 1673,
      "Ġschool": 1674,
      "Ġtoday": 1675,
      "Ġgi": 1676,
      "Ġmorning": 1677,
      "Ġbelie": 1678,
      "Ġable": 1679,
      "Ġleaf": 1680,
      "Ġcreat": 1681,
      "Ġsec": 1682,
      "Ġcute": 1683,
      "Ġsick": 1684,
      "Ġshap": 1685,
      "Ġmiss": 1686,
      "Ġturns": 1687,
      "sw": 1688,
      "Ġlunch": 1689,
      "Ġansw": 1690,
      "used": 1691,
      "Ġthough": 1692,
      "Ġdolls": 1693,
      "fish": 1694,
      "Ġsug": 1695,
      "ract": 1696,
      "Ġwish": 1697,
      "Ġapples": 1698,
      "Ġcray": 1699,
      "ased": 1700,
      "Ġfan": 1701,
      "Ġpurp": 1702,
      "Ġyear": 1703,
      "ross": 1704,
      "Ġtalked": 1705,
      "Ġbat": 1706,
      "ren": 1707,
      "ses": 1708,
      "Ġph": 1709,
      "Ġwel": 1710,
      "aur": 1711,
      "ible": 1712,
      "ose": 1713,
      "blem": 1714,
      "Ġorange": 1715,
      "Ġfixed": 1716,
      "Ġproblem": 1717,
      "ator": 1718,
      "Ġpurple": 1719,
      "Ġinstead": 1720,
      "Ġtaking": 1721,
      "ling": 1722,
      "Ġwore": 1723,
      "Ġsame": 1724,
      "ĠFinally": 1725,
      "Ġletter": 1726,
      "ountain": 1727,
      "Ġstre": 1728,
      "Ġheart": 1729,
      "ipped": 1730,
      "Ġwhe": 1731,
      "Ġbought": 1732,
      "Ġgift": 1733,
      "ever": 1734,
      "Ġpudd": 1735,
      "isk": 1736,
      "Ġsuch": 1737,
      "Ġlikes": 1738,
      "While": 1739,
      "Ġrocks": 1740,
      "Ġsign": 1741,
      "Ġwings": 1742,
      "Ġwar": 1743,
      "Ġround": 1744,
      "Ġorgan": 1745,
      "Ġpatient": 1746,
      "Ġsearched": 1747,
      "Ġsuddenly": 1748,
      "Ġspid": 1749,
      "ĠBuddy": 1750,
      "Ġking": 1751,
      "Ġchildren": 1752,
      "ian": 1753,
      "app": 1754,
      "Ġshin": 1755,
      "Ġsmo": 1756,
      "ĠDaisy": 1757,
      "Ġstrange": 1758,
      "Ġdragon": 1759,
      "Ġbow": 1760,
      "Ġsang": 1761,
      "br": 1762,
      "Ġband": 1763,
      "ĠTo": 1764,
      "Ġhelpful": 1765,
      "Ġfaster": 1766,
      "Jo": 1767,
      "Ġsack": 1768,
      "Ġmud": 1769,
      "Ġhar": 1770,
      "Ġfilled": 1771,
      "Ġwords": 1772,
      "Ġsandwich": 1773,
      "Fin": 1774,
      "Ġhig": 1775,
      "Ġstand": 1776,
      "Ġmakes": 1777,
      "Ġbarked": 1778,
      "\".": 1779,
      "Of": 1780,
      "nic": 1781,
      "Ġcozy": 1782,
      "Ġpaw": 1783,
      "Ġhor": 1784,
      "fused": 1785,
      "Ġmin": 1786,
      "Ġcarry": 1787,
      "Ġpicnic": 1788,
      "unt": 1789,
      "Ġcow": 1790,
      "Ġroad": 1791,
      "sp": 1792,
      "Ġlone": 1793,
      "Ġmissed": 1794,
      "Ġlonely": 1795,
      "ball": 1796,
      "ese": 1797,
      "Ġbrown": 1798,
      "irt": 1799,
      "Ġseem": 1800,
      "Ġboun": 1801,
      "Ġtrou": 1802,
      "Ġkick": 1803,
      "bles": 1804,
      "Ġdisapp": 1805,
      "Ġpop": 1806,
      "Ġoven": 1807,
      "Ġteac": 1808,
      "Ġbuck": 1809,
      "Ġfit": 1810,
      "Ġwolf": 1811,
      "Ġstu": 1812,
      "Ġpast": 1813,
      "Ġhiding": 1814,
      "Spot": 1815,
      "ail": 1816,
      "Ġpower": 1817,
      "Ġbutt": 1818,
      "Ġcoat": 1819,
      "Ġben": 1820,
      "ĠMaybe": 1821,
      "Ġjuice": 1822,
      "Ġcraw": 1823,
      "ila": 1824,
      "Ġjun": 1825,
      "Ġforever": 1826,
      "Ġbelieve": 1827,
      "Ġsecret": 1828,
      "iskers": 1829,
      "ato": 1830,
      "Ġbus": 1831,
      "Ġwelcome": 1832,
      "umpy": 1833,
      "Ġpull": 1834,
      "Ġmil": 1835,
      "Ġrolled": 1836,
      "Lucy": 1837,
      "ize": 1838,
      "Ġsinging": 1839,
      "Ġhigher": 1840,
      "cer": 1841,
      "to": 1842,
      "Ġteacher": 1843,
      "ĠAt": 1844,
      "Ġwra": 1845,
      "ee": 1846,
      "Ġdist": 1847,
      "Ġpers": 1848,
      "idge": 1849,
      "pper": 1850,
      "Bob": 1851,
      "ined": 1852,
      "Ġwants": 1853,
      "Ġmist": 1854,
      "Ġnose": 1855,
      "Ġpocket": 1856,
      "Ġcheese": 1857,
      "Ġappeared": 1858,
      "Ġtrip": 1859,
      "Ġob": 1860,
      "ĠInside": 1861,
      "Ġhoney": 1862,
      "Ġcolle": 1863,
      "Ġdays": 1864,
      "Ġbench": 1865,
      "irth": 1866,
      "Ġshy": 1867,
      "Ġmessy": 1868,
      "Ġmilk": 1869,
      "irthday": 1870,
      "Ġaf": 1871,
      "Ġdriver": 1872,
      "Ġtreats": 1873,
      "Ġknocked": 1874,
      "Ġtasty": 1875,
      "ĠCh": 1876,
      "Ġwagged": 1877,
      "Ġstreet": 1878,
      "Ġspider": 1879,
      "Ġcou": 1880,
      "Ġwatching": 1881,
      "ĠGra": 1882,
      "ĠTeddy": 1883,
      "erry": 1884,
      "Ġrad": 1885,
      "Ġinc": 1886,
      "Ġmed": 1887,
      "Ġnet": 1888,
      "Ġval": 1889,
      "ĠDucky": 1890,
      "emo": 1891,
      "Ġcookie": 1892,
      "Ġthrow": 1893,
      "Maybe": 1894,
      "Ġwide": 1895,
      "Ġcover": 1896,
      "Ġbur": 1897,
      "Ġvill": 1898,
      "Ġshining": 1899,
      "kin": 1900,
      "Ġdes": 1901,
      "cing": 1902,
      "Ġmark": 1903,
      "ĠBr": 1904,
      "Ġlem": 1905,
      "elly": 1906,
      "Ġteach": 1907,
      "igg": 1908,
      "Ġroll": 1909,
      "Ġfold": 1910,
      "Ġdrove": 1911,
      "ang": 1912,
      "Ġseed": 1913,
      "Ġpuzz": 1914,
      "Ġtaste": 1915,
      "Ġact": 1916,
      "Ġyoung": 1917,
      "Ġspo": 1918,
      "la": 1919,
      "cean": 1920,
      "Ġocean": 1921,
      "Ġeas": 1922,
      "Ġlonger": 1923,
      "ĠJust": 1924,
      "Ġtalking": 1925,
      "Ġpart": 1926,
      "Ġbirthday": 1927,
      "Ġkitten": 1928,
      "Ġlanded": 1929,
      "ale": 1930,
      "Ġmad": 1931,
      "Ġmine": 1932,
      "Ġlife": 1933,
      "Ġshop": 1934,
      "Ġspark": 1935,
      "Ġdirt": 1936,
      "ises": 1937,
      "Ġfoot": 1938,
      "ĠTweety": 1939,
      "fortable": 1940,
      "Finally": 1941,
      "raid": 1942,
      "Ġlaughing": 1943,
      "den": 1944,
      "ually": 1945,
      "Ġjelly": 1946,
      "ĠWhiskers": 1947,
      "Ġafraid": 1948,
      "ches": 1949,
      "una": 1950,
      "umb": 1951,
      "Ġmagical": 1952,
      "Ġpuddle": 1953,
      "alm": 1954,
      "Ġasleep": 1955,
      "Ġseek": 1956,
      "Ġship": 1957,
      "Ġrob": 1958,
      "izz": 1959,
      "ass": 1960,
      "Ġinv": 1961,
      "olate": 1962,
      "Ġhidden": 1963,
      "ocolate": 1964,
      "Ġphone": 1965,
      "Ġ-": 1966,
      "Ġsuc": 1967,
      "Ġmeet": 1968,
      "Ġbush": 1969,
      "Ġrobot": 1970,
      "Ġturt": 1971,
      "Ġonto": 1972,
      "Ġpeace": 1973,
      "Ġpill": 1974,
      "epend": 1975,
      "sting": 1976,
      "Ġchick": 1977,
      "Ġchocolate": 1978,
      "Ġwash": 1979,
      "Ġthin": 1980,
      "Ġwhist": 1981,
      "Ġcave": 1982,
      "Ġstart": 1983,
      "John": 1984,
      "Ġcollect": 1985,
      "ĠZ": 1986,
      "ĠSoon": 1987,
      "Ġdrew": 1988,
      "Ġwonderful": 1989,
      "Ġlater": 1990,
      "Ġshr": 1991,
      "Ġrope": 1992,
      "Ġholding": 1993,
      "Ġturtle": 1994,
      "Ġnut": 1995,
      "Ġdecor": 1996,
      "ĠEllie": 1997,
      "Ġcarrots": 1998,
      "Ġbake": 1999,
      "Ġliving": 2000,
      "ugg": 2001,
      "Ġswimming": 2002,
      "Ġjungle": 2003,
      "ress": 2004,
      "Ġpile": 2005,
      "Ġprot": 2006,
      "Ġchest": 2007,
      "ĠEmma": 2008,
      "emy": 2009,
      "Ġcoin": 2010,
      "Ġgrew": 2011,
      "Ġmost": 2012,
      "!âĢĿ": 2013,
      "Ġmind": 2014,
      "Ġmum": 2015,
      "Ġkite": 2016,
      "ĠNemo": 2017,
      "Ġbucket": 2018,
      "Ġplate": 2019,
      "Ġlive": 2020,
      "Ġshapes": 2021,
      "mer": 2022,
      "Ġplane": 2023,
      "Ġspicy": 2024,
      "Ġhealthy": 2025,
      "Ġshook": 2026,
      "ular": 2027,
      "Ġspin": 2028,
      "Ġexp": 2029,
      "ife": 2030,
      "Ġgently": 2031,
      "Please": 2032,
      "Ġfence": 2033,
      "Ġmach": 2034,
      "Ġbirdie": 2035,
      "Ġsmiles": 2036,
      "ions": 2037,
      "ĠThank": 2038,
      "izza": 2039,
      "Ġce": 2040,
      "Ġshake": 2041,
      "Ġjoy": 2042,
      "irp": 2043,
      "Ġchased": 2044,
      "Ġmoved": 2045,
      "Ġwheel": 2046,
      "ital": 2047,
      "Ġcard": 2048,
      "Ġpizza": 2049,
      "Ġcloth": 2050,
      "Ġjoke": 2051,
      "Ġvillage": 2052,
      "com": 2053,
      "Ġsold": 2054,
      "Ġhosp": 2055,
      "ĠJoe": 2056,
      "Ġcouch": 2057,
      "Ġhospital": 2058,
      "Ġcir": 2059,
      "Ġcoo": 2060,
      "Ġpract": 2061,
      "Ġzoom": 2062,
      "ially": 2063,
      "ove": 2064,
      "Ġap": 2065,
      "ama": 2066,
      "pecially": 2067,
      "Ġconfused": 2068,
      "Ġespecially": 2069,
      "Ġban": 2070,
      "Ġtea": 2071,
      "Ġpromise": 2072,
      "Ġhoped": 2073,
      ".âĢĿ": 2074,
      "gly": 2075,
      "Ġshell": 2076,
      "Ġknee": 2077,
      "erp": 2078,
      "Ġsaved": 2079,
      "Ġugly": 2080,
      "oose": 2081,
      "Ġalong": 2082,
      "umber": 2083,
      "Ġgentle": 2084,
      "ĠBrown": 2085,
      "Ġdi": 2086,
      "orrow": 2087,
      "illar": 2088,
      "Ġbuilding": 2089,
      "bow": 2090,
      "Ġser": 2091,
      "Ġpour": 2092,
      "Ġshirt": 2093,
      "Ġcaterp": 2094,
      "Ġanyone": 2095,
      "Ġhorse": 2096,
      "Ġcaterpillar": 2097,
      "ork": 2098,
      "Ġbusy": 2099,
      "Ġsharp": 2100,
      "Ġnaught": 2101,
      "Ġscream": 2102,
      "Ġglow": 2103,
      "Ġtasted": 2104,
      "Ġquest": 2105,
      "Ġnaughty": 2106,
      "Be": 2107,
      "Ġlake": 2108,
      "Ġgrumpy": 2109,
      "Ġrainbow": 2110,
      "ĠWhile": 2111,
      "osaur": 2112,
      "Ġtomorrow": 2113,
      "Ġbanan": 2114,
      "lace": 2115,
      "Ġsave": 2116,
      "Ġsol": 2117,
      "Ġnecklace": 2118,
      "Ġwave": 2119,
      "itch": 2120,
      "Ġlucky": 2121,
      "Ġpan": 2122,
      "ert": 2123,
      "Ġgrand": 2124,
      "Ġclever": 2125,
      "Ġsongs": 2126,
      "Good": 2127,
      "ity": 2128,
      "Ġret": 2129,
      "Ġwrite": 2130,
      "Ġdinosaur": 2131,
      "Ġsmelled": 2132,
      "Ġpuzzle": 2133,
      "Ġclown": 2134,
      "Ġvase": 2135,
      "Ġlad": 2136,
      "Ġjour": 2137,
      "Ġnearby": 2138,
      "Ġfruits": 2139,
      "Ġqueen": 2140,
      "Ġjourn": 2141,
      "Amy": 2142,
      "Ġtid": 2143,
      "Ġsel": 2144,
      "Ġladder": 2145,
      "Ġworm": 2146,
      "Ġcleaned": 2147,
      "Ġsounds": 2148,
      "Ġcheered": 2149,
      "pa": 2150,
      "Ġcrayons": 2151,
      "Ġmyster": 2152,
      "Ġmistake": 2153,
      "Ġtidy": 2154,
      "Ġscar": 2155,
      "Ġintere": 2156,
      "gest": 2157,
      "Ġretur": 2158,
      "Jack": 2159,
      "work": 2160,
      "llo": 2161,
      "Ġfeather": 2162,
      "Ġcalm": 2163,
      "adow": 2164,
      "Ġwhole": 2165,
      "Ġimag": 2166,
      "Ġlemon": 2167,
      "Ġselfish": 2168,
      "Now": 2169,
      "wel": 2170,
      "Ġsur": 2171,
      "Ġwing": 2172,
      "Ġfing": 2173,
      "Ġstars": 2174,
      "Ġdrawing": 2175,
      "Ġyears": 2176,
      "cks": 2177,
      "Ġspoon": 2178,
      "Ġknowing": 2179,
      "Ġspoil": 2180,
      "My": 2181,
      "Ġtouc": 2182,
      "Ġpump": 2183,
      "Ġbutton": 2184,
      "Ġslowly": 2185,
      "Ġmachine": 2186,
      "cap": 2187,
      "uce": 2188,
      "Ġjewel": 2189,
      "Ġsplas": 2190,
      "Ġfancy": 2191,
      "Ġpri": 2192,
      "ella": 2193,
      "ĠRemy": 2194,
      "Ġwearing": 2195,
      "Ġwondered": 2196,
      "ĠSp": 2197,
      "Ġtie": 2198,
      "Ġmeant": 2199,
      "Ġasks": 2200,
      "box": 2201,
      "Ġsnowman": 2202,
      "Ġsmooth": 2203,
      "erly": 2204,
      "Ġwhenever": 2205,
      "Ġgrab": 2206,
      "Ġdrive": 2207,
      "Ġworking": 2208,
      "Ġzoo": 2209,
      "Ġlay": 2210,
      "Ġwaiting": 2211,
      "ness": 2212,
      "Ġent": 2213,
      "ching": 2214,
      "Ġgroup": 2215,
      "Ġanswer": 2216,
      "Ġign": 2217,
      "Hey": 2218,
      "Ġtouched": 2219,
      "Ġbugs": 2220,
      "Ġpowerful": 2221,
      "Ġbone": 2222,
      "Ġhello": 2223,
      "Ġsal": 2224,
      "eter": 2225,
      "Ġstories": 2226,
      "ost": 2227,
      "lla": 2228,
      "Ġpres": 2229,
      "Ġsu": 2230,
      "ont": 2231,
      "Ġtightly": 2232,
      "Ġpointed": 2233,
      "ond": 2234,
      "Ġbark": 2235,
      "Ġgather": 2236,
      "Ġwhich": 2237,
      "Ġtwins": 2238,
      "Ġacross": 2239,
      "Ġunderstood": 2240,
      "Ġpretended": 2241,
      "Ġinteresting": 2242,
      "ĠBunny": 2243,
      "Ġseat": 2244,
      "Ġfront": 2245,
      "mp": 2246,
      "Ġbread": 2247,
      "Ġbald": 2248,
      "Ġwhistle": 2249,
      "ten": 2250,
      "Ġpush": 2251,
      "Ġprince": 2252,
      "Ġsour": 2253,
      "imed": 2254,
      "Ġemp": 2255,
      "Ġempty": 2256,
      "Ġspe": 2257,
      "ment": 2258,
      "ĠLila": 2259,
      "ensive": 2260,
      "eo": 2261,
      "Ġpath": 2262,
      "eth": 2263,
      "unk": 2264,
      "Ġcart": 2265,
      "Ġslid": 2266,
      "Ġsleepy": 2267,
      "Ġcreative": 2268,
      "Ġexpensive": 2269,
      "Ġyog": 2270,
      "Ġboss": 2271,
      "Ġstring": 2272,
      "Ġcleaning": 2273,
      "Ġtrouble": 2274,
      "Ġpresent": 2275,
      "lower": 2276,
      "ĠTV": 2277,
      "Ġstone": 2278,
      "Ġtool": 2279,
      "Ġmov": 2280,
      "Ġfamous": 2281,
      "aughter": 2282,
      "Ġhum": 2283,
      "imi": 2284,
      "Ġstret": 2285,
      "iff": 2286,
      "Ġhuge": 2287,
      "Ġfinish": 2288,
      "ĠTweetie": 2289,
      "Ġsugar": 2290,
      "Ġprotect": 2291,
      "Ġav": 2292,
      "Ġwand": 2293,
      "Ġforget": 2294,
      "Ġchange": 2295,
      "Ġsunsh": 2296,
      "airs": 2297,
      "Ġsunshine": 2298,
      "yal": 2299,
      "Ġlift": 2300,
      "Ġruns": 2301,
      "Ġjumping": 2302,
      "Ġpolice": 2303,
      "ĠGrandma": 2304,
      "Ġnote": 2305,
      "Ġtowel": 2306,
      "Ġchew": 2307,
      "Ġgiant": 2308,
      "To": 2309,
      "Ġsort": 2310,
      "Ġbell": 2311,
      "Ġspace": 2312,
      "vous": 2313,
      "Ġgen": 2314,
      "Ġfeels": 2315,
      "icine": 2316,
      "izzy": 2317,
      "Ġremind": 2318,
      "Ġexplor": 2319,
      "Ġpass": 2320,
      "Ġcro": 2321,
      "ars": 2322,
      "Ġemb": 2323,
      "getable": 2324,
      "ope": 2325,
      "Ġtaught": 2326,
      "Ġvegetable": 2327,
      "Ġmedicine": 2328,
      "Ġsupp": 2329,
      "Ġloyal": 2330,
      "Ġplaces": 2331,
      "az": 2332,
      "arra": 2333,
      "ĠBu": 2334,
      "ult": 2335,
      "Ġembarra": 2336,
      "Ġmot": 2337,
      "Ġspray": 2338,
      "Ġpoor": 2339,
      "Ġthinks": 2340,
      "Ġpool": 2341,
      "ĠJohnny": 2342,
      "Ġperson": 2343,
      "Ġpeaceful": 2344,
      "Ġpillow": 2345,
      "Ġpumpkin": 2346,
      "est": 2347,
      "Ġsoap": 2348,
      "Ġreg": 2349,
      "Ġjack": 2350,
      "Ġlaw": 2351,
      "Ġlazy": 2352,
      "Ġexcla": 2353,
      "Ġcheer": 2354,
      "Ġclass": 2355,
      "Ġexclaimed": 2356,
      "Ġmountain": 2357,
      "Ġgray": 2358,
      "ereal": 2359,
      "oop": 2360,
      "ĠBella": 2361,
      "urse": 2362,
      "Ġfle": 2363,
      "Ġshelf": 2364,
      "onest": 2365,
      "Ġhonest": 2366,
      "Ġcereal": 2367,
      "Ġcheck": 2368,
      "Ġlovely": 2369,
      "Ġarms": 2370,
      "Ġescap": 2371,
      "Ġpay": 2372,
      "Ġrid": 2373,
      "ĠLeo": 2374,
      "pect": 2375,
      "Ġbossy": 2376,
      "Ġjacket": 2377,
      "Ġcage": 2378,
      "Ġorganized": 2379,
      "isa": 2380,
      "Ġnothing": 2381,
      "Ġsco": 2382,
      "Ġballs": 2383,
      "Ġbeak": 2384,
      "Benny": 2385,
      "Ġsnacks": 2386,
      "dge": 2387,
      "Ġdaughter": 2388,
      "Ġner": 2389,
      "Ġharm": 2390,
      "fast": 2391,
      "oppy": 2392,
      "rated": 2393,
      "Ġtent": 2394,
      "Ġbal": 2395,
      "Ġdough": 2396,
      "Ġscre": 2397,
      "Ġrude": 2398,
      "Ġstepped": 2399,
      "Ġfighting": 2400,
      "Ġnervous": 2401,
      "Ġvan": 2402,
      "Ġdancing": 2403,
      "Ġbreakfast": 2404,
      "Ġmixed": 2405,
      "Ġsuccess": 2406,
      "Ġeag": 2407,
      "Ġones": 2408,
      "Ġcarried": 2409,
      "ĠJen": 2410,
      "Ġmoon": 2411,
      "Ġfrust": 2412,
      "bin": 2413,
      "ward": 2414,
      "Ġfil": 2415,
      "Ġcabin": 2416,
      "Ġnoises": 2417,
      "Ġpassed": 2418,
      "Ġstir": 2419,
      "Ġwip": 2420,
      "Ġfake": 2421,
      "Ġash": 2422,
      "Ġmatter": 2423,
      "Ġlegs": 2424,
      "Ġscarf": 2425,
      "Ġfrustrated": 2426,
      "Ġwild": 2427,
      "Ġmaybe": 2428,
      "amed": 2429,
      "Ġpray": 2430,
      "Ġhope": 2431,
      "Ġgener": 2432,
      "lph": 2433,
      "not": 2434,
      "Ġtoug": 2435,
      "Ġcher": 2436,
      "Ġwealthy": 2437,
      "Ġdolph": 2438,
      "ĠMimi": 2439,
      "ĠJerry": 2440,
      "ĠRed": 2441,
      "Ġsweetie": 2442,
      "Ġcannot": 2443,
      "Ġexam": 2444,
      "ieved": 2445,
      "Ġchase": 2446,
      "ĠBrownie": 2447,
      "Ġhur": 2448,
      "Ġflag": 2449,
      "Ġtest": 2450,
      "Ġrich": 2451,
      "Ġcloset": 2452,
      "Ġmysterious": 2453,
      "Ġembarrassed": 2454,
      "Ġtough": 2455,
      "Ġweak": 2456,
      "Ġborrow": 2457,
      "ĠOn": 2458,
      "Ġhugs": 2459,
      "Ġrocket": 2460,
      "Ġdest": 2461,
      "Ġducks": 2462,
      "Ġdig": 2463,
      "celet": 2464,
      "Ġstood": 2465,
      "itter": 2466,
      "alous": 2467,
      "Ġspr": 2468,
      "Ġblow": 2469,
      "Ġbracelet": 2470,
      "Ġdisco": 2471,
      "ĠDaddy": 2472,
      "Ġvegetables": 2473,
      "ĠMy": 2474,
      "Ġgold": 2475,
      "Ġcube": 2476,
      "Ġsticks": 2477,
      "Ġjealous": 2478,
      "Ġclouds": 2479,
      "ĠSm": 2480,
      "Ġtrust": 2481,
      "Ġmoving": 2482,
      "Ġpolite": 2483,
      "Ġsplash": 2484,
      "Ġbelonged": 2485,
      "Ġfrag": 2486,
      "Ġcor": 2487,
      "lebr": 2488,
      "Ġnoisy": 2489,
      "Ġteeth": 2490,
      "Ġbreath": 2491,
      "Ġfaces": 2492,
      "Ġdrank": 2493,
      "Ġrelieved": 2494,
      "Ġgun": 2495,
      "anger": 2496,
      "Ġrough": 2497,
      "ometimes": 2498,
      "Ġadm": 2499,
      "Ġtomato": 2500,
      "Ġchicken": 2501,
      "Ġmotor": 2502,
      "Ġfragile": 2503,
      "iting": 2504,
      "Ġevent": 2505,
      "Ġsword": 2506,
      "Ġbub": 2507,
      "Ġacorn": 2508,
      "Ġcovered": 2509,
      "Ġeasy": 2510,
      "Ġcelebr": 2511,
      "Ġgenerous": 2512,
      "And": 2513,
      "lves": 2514,
      "Ġring": 2515,
      "ĠBe": 2516,
      "Ġsell": 2517,
      "ĠFred": 2518,
      "ĠJill": 2519,
      "Ġteam": 2520,
      "Ġparade": 2521,
      "ĠTogether": 2522,
      "Ġmovie": 2523,
      "OK": 2524,
      "Ġdizzy": 2525,
      "isp": 2526,
      "Ġeld": 2527,
      "Ġspilled": 2528,
      "Ġcrown": 2529,
      "Ġresc": 2530,
      "?âĢĿ": 2531,
      "corn": 2532,
      "ones": 2533,
      "Ġscare": 2534,
      "Ġskip": 2535,
      "Ġstranger": 2536,
      "ctop": 2537,
      "Ġplants": 2538,
      "Ġbounce": 2539,
      "Ġsauce": 2540,
      "Ġroar": 2541,
      "Ġmeal": 2542,
      "Ġprize": 2543,
      "kn": 2544,
      "Ġtank": 2545,
      "Ġber": 2546,
      "Ġcorn": 2547,
      "Ġnumber": 2548,
      "Ġlock": 2549,
      "Ġpoem": 2550,
      "Ġsmelly": 2551,
      "Ġsuggest": 2552,
      "Ġsplashed": 2553,
      "Ġberries": 2554,
      "pack": 2555,
      "Ġpir": 2556,
      "arge": 2557,
      "Ġgigg": 2558,
      "ory": 2559,
      "igator": 2560,
      "Ġcomes": 2561,
      "irpy": 2562,
      "known": 2563,
      "Billy": 2564,
      "aw": 2565,
      "Ġtick": 2566,
      "Ġstuff": 2567,
      "Ġlast": 2568,
      "Ġunknown": 2569,
      "Ġpainting": 2570,
      "Ġcrack": 2571,
      "Ġhappening": 2572,
      "St": 2573,
      "pes": 2574,
      "Ġwom": 2575,
      "Ġline": 2576,
      "Ġham": 2577,
      "Ġhang": 2578,
      "Ġstraw": 2579,
      "Ġwhale": 2580,
      "Ġloudly": 2581,
      "Ġpopcorn": 2582,
      "Ġsolve": 2583,
      "Ġdolphin": 2584,
      "aving": 2585,
      "ilt": 2586,
      "Ġoctop": 2587,
      "Ġspent": 2588,
      "ĠGo": 2589,
      "ggy": 2590,
      "Ġeggs": 2591,
      "Ġelderly": 2592,
      "Ġwoman": 2593,
      "het": 2594,
      "Ġfountain": 2595,
      "Ġrec": 2596,
      "ĠCat": 2597,
      "Ġshoot": 2598,
      "ĠSmith": 2599,
      "ti": 2600,
      "ĠTheir": 2601,
      "Ġshark": 2602,
      "Ġnod": 2603,
      "aghet": 2604,
      "Ġarg": 2605,
      "Ġdecorate": 2606,
      "Ġoctopus": 2607,
      "aghetti": 2608,
      "ony": 2609,
      "Ġrat": 2610,
      "Ġlose": 2611,
      "Ġasking": 2612,
      "Ġalligator": 2613,
      "Ġtape": 2614,
      "Ġglue": 2615,
      "Ġcrane": 2616,
      "Ġprint": 2617,
      "Ġadd": 2618,
      "owed": 2619,
      "Ġwhisp": 2620,
      "ĠAnn": 2621,
      "Ġdogs": 2622,
      "Ġtaken": 2623,
      "Ġslipped": 2624,
      "ĠWhy": 2625,
      "Ġsleeping": 2626,
      "ror": 2627,
      "Ġhero": 2628,
      "Ġrh": 2629,
      "Ġnosy": 2630,
      "Ġtrunk": 2631,
      "Ġfier": 2632,
      "ĠMrs": 2633,
      "Ġboring": 2634,
      "Ġseemed": 2635,
      "Ġfinger": 2636,
      "Ġharmless": 2637,
      "Ġmir": 2638,
      "Ġweek": 2639,
      "Ġgoat": 2640,
      "Ġlead": 2641,
      "osie": 2642,
      "Ġfierce": 2643,
      "Ġaunt": 2644,
      "Ġmap": 2645,
      "imp": 2646,
      "Ġhelic": 2647,
      "Ġfeet": 2648,
      "opter": 2649,
      "Ġuni": 2650,
      "Ġtrue": 2651,
      "Ġcomfortable": 2652,
      "Ġbathroom": 2653,
      "Ġdiscover": 2654,
      "Ġhelicopter": 2655,
      "Come": 2656,
      "aking": 2657,
      "we": 2658,
      "Ġants": 2659,
      "ute": 2660,
      "Ġrare": 2661,
      "ĠLisa": 2662,
      "iable": 2663,
      "Ġoffered": 2664,
      "olog": 2665,
      "Ġwaves": 2666,
      "Ġnorm": 2667,
      "ung": 2668,
      "unn": 2669,
      "Ġlibr": 2670,
      "Ġjet": 2671,
      "Ġspend": 2672,
      "Ġdeer": 2673,
      "oomy": 2674,
      "Ġpacked": 2675,
      "Ġwrap": 2676,
      "Ġignor": 2677,
      "Ġunique": 2678,
      "dile": 2679,
      "Ġlarge": 2680,
      "Ġgate": 2681,
      "ighed": 2682,
      "Ġsheep": 2683,
      "Ġweird": 2684,
      "Ġspaghetti": 2685,
      "ĠJim": 2686,
      "ours": 2687,
      "codile": 2688,
      "Ġwagon": 2689,
      "Ġapolog": 2690,
      "Ġmirror": 2691,
      "Ġnormal": 2692,
      "dle": 2693,
      "ground": 2694,
      "Ġsuit": 2695,
      "Ġdug": 2696,
      "arl": 2697,
      "ors": 2698,
      "Ġfinding": 2699,
      "Ġbuilt": 2700,
      "Ġstove": 2701,
      "phone": 2702,
      "Ġhairy": 2703,
      "Ġfurry": 2704,
      "Sally": 2705,
      "Ġtummy": 2706,
      "Ġfeed": 2707,
      "Ġbridge": 2708,
      "Ġfridge": 2709,
      "Ġpainted": 2710,
      "Ġforgive": 2711,
      "Ġtripped": 2712,
      "Ġspoiled": 2713,
      "Ġtig": 2714,
      "Ġtag": 2715,
      "ĠBun": 2716,
      "Ġbecome": 2717,
      "Ġmush": 2718,
      "ĠBobby": 2719,
      "ĠCome": 2720,
      "Ġkicked": 2721,
      "Ġashamed": 2722,
      "Ġcorner": 2723,
      "apped": 2724,
      "cles": 2725,
      "Ġguit": 2726,
      "ote": 2727,
      "Ġbody": 2728,
      "Ġmighty": 2729,
      "Are": 2730,
      "Ġfis": 2731,
      "Ġkiss": 2732,
      "Ġknife": 2733,
      "Ġfear": 2734,
      "Ġclear": 2735,
      "Ġglass": 2736,
      "Ġmeans": 2737,
      "Ġdrum": 2738,
      "Ġincred": 2739,
      "Ġseeds": 2740,
      "Ġescape": 2741,
      "Ġbalance": 2742,
      "Ġgiggled": 2743,
      "Ġstrawber": 2744,
      "Ġmushroom": 2745,
      "ual": 2746,
      "Ġhunt": 2747,
      "Ġdepend": 2748,
      "Ġbean": 2749,
      "Ġstep": 2750,
      "ĠLuna": 2751,
      "Ġincredible": 2752,
      "Ġind": 2753,
      "Ġfat": 2754,
      "Ġpin": 2755,
      "Ġmask": 2756,
      "ery": 2757,
      "Ġwashed": 2758,
      "Ġthick": 2759,
      "Ġballoons": 2760,
      "Ġbranches": 2761,
      "Ġcreature": 2762,
      "ĠChirpy": 2763,
      "Soon": 2764,
      "oin": 2765,
      "port": 2766,
      "Ġfill": 2767,
      "Ġcri": 2768,
      "ĠSometimes": 2769,
      "oof": 2770,
      "Ġfright": 2771,
      "ĠDon": 2772,
      "ipper": 2773,
      "ser": 2774,
      "Ġthese": 2775,
      "Ġbitter": 2776,
      "ĠMolly": 2777,
      "Ġleaving": 2778,
      "roy": 2779,
      "Ġkindness": 2780,
      "Ġord": 2781,
      "Ġarrow": 2782,
      "Ġpotato": 2783,
      "Ġbored": 2784,
      "Ġjourney": 2785,
      "Ġcrocodile": 2786,
      "Ġdestroy": 2787,
      "Ġguitar": 2788,
      "read": 2789,
      "Ġgoose": 2790,
      "Ġref": 2791,
      "Ġrode": 2792,
      "Ġsmiling": 2793,
      "ellig": 2794,
      "Ġchar": 2795,
      "Ġintellig": 2796,
      "Ġenorm": 2797,
      "Ġmatch": 2798,
      "Ġanswered": 2799,
      "Ġsuccessful": 2800,
      "Ġfrightened": 2801,
      "Ġenormous": 2802,
      "ado": 2803,
      "Ġknight": 2804,
      "ĠYour": 2805,
      "Ġpost": 2806,
      "Ġhopping": 2807,
      "Ġcreate": 2808,
      "Ġthread": 2809,
      "Ġmarket": 2810,
      "Ġserious": 2811,
      "cient": 2812,
      "fic": 2813,
      "light": 2814,
      "und": 2815,
      "Ġwander": 2816,
      "Ġload": 2817,
      "ĠFr": 2818,
      "Ġtakes": 2819,
      "Ġtrap": 2820,
      "Ġdisappoin": 2821,
      "Where": 2822,
      "Ġtied": 2823,
      "ĠBet": 2824,
      "Ġancient": 2825,
      "Ġspread": 2826,
      "Ġmagaz": 2827,
      "ĠRosie": 2828,
      "Ġdiffic": 2829,
      "Ġmixer": 2830,
      "Ġcomput": 2831,
      "Ġrespect": 2832,
      "Ġinvited": 2833,
      "Ġexploring": 2834,
      "Ġdifficult": 2835,
      "Ġicy": 2836,
      "Ġtor": 2837,
      "Ġwaff": 2838,
      "angle": 2839,
      "Ġlicked": 2840,
      "ict": 2841,
      "Ġmeat": 2842,
      "Ġputs": 2843,
      "ants": 2844,
      "Ġskin": 2845,
      "Ġsafely": 2846,
      "Ġreliable": 2847,
      "Ġsuggested": 2848,
      "Ġdependable": 2849,
      "Ġhay": 2850,
      "Ġdull": 2851,
      "isted": 2852,
      "ots": 2853,
      "Ġink": 2854,
      "als": 2855,
      "Ġjam": 2856,
      "quit": 2857,
      "ĠPolly": 2858,
      "Ġintelligent": 2859,
      "Ġcomputer": 2860,
      "Ġheal": 2861,
      "ĠHow": 2862,
      "selves": 2863,
      "Ġclum": 2864,
      "Ġyourself": 2865,
      "Ġjolly": 2866,
      "Ġdelicate": 2867,
      "Ġbatter": 2868,
      "Ġscreamed": 2869,
      "Together": 2870,
      "Ġcross": 2871,
      "uring": 2872,
      "Ġclay": 2873,
      "Ġgives": 2874,
      "Ġjog": 2875,
      "Ġbelt": 2876,
      "Ġhammer": 2877,
      "quito": 2878,
      "Ġwis": 2879,
      "era": 2880,
      "anut": 2881,
      "amond": 2882,
      "Ġboxes": 2883,
      "Ġunl": 2884,
      "Ġfirework": 2885,
      "Ġyelled": 2886,
      "ĠEmily": 2887,
      "Ġmailbox": 2888,
      "Ġgiving": 2889,
      "Ġcrayon": 2890,
      "Ġdiamond": 2891,
      "Ġsurf": 2892,
      "Ġeager": 2893,
      "Ġtorn": 2894,
      "ying": 2895,
      "Ġmid": 2896,
      "atter": 2897,
      "Ġoften": 2898,
      "elp": 2899,
      "iches": 2900,
      "Ġswan": 2901,
      "Ġbloom": 2902,
      "Ġpeanut": 2903,
      "Ġdead": 2904,
      "coa": 2905,
      "Ġsandwiches": 2906,
      "Ġpige": 2907,
      "Ġscoot": 2908,
      "Ġclumsy": 2909,
      "Ġmiddle": 2910,
      "ipp": 2911,
      "land": 2912,
      "Ġdish": 2913,
      "Ġgar": 2914,
      "Ġstri": 2915,
      "Ġstamp": 2916,
      "urous": 2917,
      "Ġcomb": 2918,
      "Tommy": 2919,
      "Ġadventurous": 2920,
      "Ġdisg": 2921,
      "Ġusing": 2922,
      "Ġsteal": 2923,
      "Ġmissing": 2924,
      "Ġpasta": 2925,
      "Ġgrandpa": 2926,
      "Ġdisappointed": 2927,
      "bled": 2928,
      "squito": 2929,
      "ina": 2930,
      "Ġpony": 2931,
      "Ġlocked": 2932,
      "ume": 2933,
      "Ġmeasure": 2934,
      "Ġsaying": 2935,
      "Ġmosquito": 2936,
      "Ġtele": 2937,
      "Ġwrote": 2938,
      "Ġuseful": 2939,
      "Ġtriangle": 2940,
      "Ġdriving": 2941,
      "Ġpenny": 2942,
      "Ġsoldier": 2943,
      "Ġcircle": 2944,
      "Ġbanana": 2945,
      "Ġtiger": 2946,
      "Ġcharming": 2947,
      "Ġwake": 2948,
      "erri": 2949,
      "Ġnotice": 2950,
      "Ġgoes": 2951,
      "Ġtrack": 2952,
      "Ġmoder": 2953,
      "Ġtries": 2954,
      "Ġcompet": 2955,
      "Ġpackage": 2956,
      "comfortable": 2957,
      "Ġflex": 2958,
      "met": 2959,
      "ither": 2960,
      "Ġplayground": 2961,
      "Ġlog": 2962,
      "Ġhelmet": 2963,
      "Ġclub": 2964,
      "Ġanyway": 2965,
      "Ġvi": 2966,
      "Ġuncomfortable": 2967,
      "Ġimpress": 2968,
      "Ġdeliver": 2969,
      "Ġwarned": 2970,
      "Ġpopular": 2971,
      "Stop": 2972,
      "Kitty": 2973,
      "gy": 2974,
      "Ġbul": 2975,
      "ĠIf": 2976,
      "Ġhouses": 2977,
      "ĠEven": 2978,
      "Ġbarn": 2979,
      "Ġdistance": 2980,
      "Ġreminded": 2981,
      "fted": 2982,
      "io": 2983,
      "Ġterri": 2984,
      "Ġtoast": 2985,
      "any": 2986,
      "Ġstack": 2987,
      "ĠMark": 2988,
      "Ġrose": 2989,
      "ĠWith": 2990,
      "Ġthoughtful": 2991,
      "usting": 2992,
      "Ġpicking": 2993,
      "Ġloves": 2994,
      "Ġstudy": 2995,
      "Ġindepend": 2996,
      "Ġpigeon": 2997,
      "edient": 2998,
      "erop": 2999,
      "Ġbeet": 3000,
      "Ġcase": 3001,
      "Ġscr": 3002,
      "Ġmuff": 3003,
      "Ġbadly": 3004,
      "andy": 3005,
      "upid": 3006,
      "Ġorganize": 3007,
      "Ġdesign": 3008,
      "Ġcooking": 3009,
      "Ġviol": 3010,
      "eropl": 3011,
      "Every": 3012,
      "Me": 3013,
      "ject": 3014,
      "Ġaeropl": 3015,
      "Ġfine": 3016,
      "Ġcomet": 3017,
      "Ġmay": 3018,
      "Ġshade": 3019,
      "Ġflash": 3020,
      "Ġswe": 3021,
      "Ġgets": 3022,
      "Ġunus": 3023,
      "Ġcrawled": 3024,
      "Ġcheerful": 3025,
      "Ġdisgusting": 3026,
      "Ġindependent": 3027,
      "Ġunusual": 3028,
      "iant": 3029,
      "Ġsque": 3030,
      "Ġwire": 3031,
      "Ġumb": 3032,
      "Ġstupid": 3033,
      "Ġshadow": 3034,
      "Ġrep": 3035,
      "asing": 3036,
      "Ġenvel": 3037,
      "Ġforgave": 3038,
      "Ġdreaming": 3039,
      "ache": 3040,
      "Ġdoesn": 3041,
      "ĠOllie": 3042,
      "Ġobedient": 3043,
      "Ġradish": 3044,
      "Ġpoured": 3045,
      "Ġquestion": 3046,
      "Ġcompetit": 3047,
      "Ġflexible": 3048,
      "Ġimpressive": 3049,
      "Ġumbre": 3050,
      "nam": 3051,
      "Ġtunn": 3052,
      "Ġfool": 3053,
      "Ġpow": 3054,
      "Ġmel": 3055,
      "atient": 3056,
      "Ġgas": 3057,
      "Ġfork": 3058,
      "urch": 3059,
      "Ġcarp": 3060,
      "Ġcost": 3061,
      "Ġimpatient": 3062,
      "ĠInstead": 3063,
      "Ġstubb": 3064,
      "Ġwrapped": 3065,
      "Ġyogurt": 3066,
      "Ġmodern": 3067,
      "Ġbeetle": 3068,
      "Ġviolin": 3069,
      "Ġtunnel": 3070,
      "cage": 3071,
      "Ġgem": 3072,
      "Ġbirdcage": 3073,
      "icro": 3074,
      "Ġalert": 3075,
      "Ġcocoa": 3076,
      "Ġfluffy": 3077,
      "Ġsmaller": 3078,
      "bby": 3079,
      "Ġtwist": 3080,
      "Ġperform": 3081,
      "Ġearly": 3082,
      "Ġcounted": 3083,
      "Ġrelax": 3084,
      "Ġpaws": 3085,
      "Ġquestions": 3086,
      "Ġstubborn": 3087,
      "Ġpants": 3088,
      "Ġbees": 3089,
      "robe": 3090,
      "Ġreading": 3091,
      "Ġbottom": 3092,
      "Ġpracticed": 3093,
      "Ġfoolish": 3094,
      "Dad": 3095,
      "dom": 3096,
      "illiant": 3097,
      "Ġornam": 3098,
      "Ġgloomy": 3099,
      "Ġtrucks": 3100,
      "Ġjuicy": 3101,
      "Ġcows": 3102,
      "Ġradio": 3103,
      "Ġcooked": 3104,
      "Ġglowing": 3105,
      "Ġlibrary": 3106,
      "Ġcarpet": 3107,
      "Ġornament": 3108,
      "ube": 3109,
      "Ġcel": 3110,
      "Ġpil": 3111,
      "ĠSn": 3112,
      "Ġplayful": 3113,
      "ĠMary": 3114,
      "Ġhelps": 3115,
      "ulu": 3116,
      "Ġbrilliant": 3117,
      "shion": 3118,
      "Ġmetal": 3119,
      "Ġsailed": 3120,
      "Ġjoined": 3121,
      "Ġfootball": 3122,
      "Ġfeathers": 3123,
      "Ġbubbles": 3124,
      "Ġrecord": 3125,
      "Ġterrible": 3126,
      "Ġcelery": 3127,
      "aff": 3128,
      "lies": 3129,
      "vator": 3130,
      "alk": 3131,
      "Ġisland": 3132,
      "Ġlearning": 3133,
      "Ġchurch": 3134,
      "Ġfrown": 3135,
      "ĠPlease": 3136,
      "Ġfreez": 3137,
      "Ġreturned": 3138,
      "Ġmagazine": 3139,
      "How": 3140,
      "ud": 3141,
      "Ġforth": 3142,
      "Ġshine": 3143,
      "Ġboard": 3144,
      "ĠAl": 3145,
      "Ġflour": 3146,
      "Ġgrace": 3147,
      "Ġpear": 3148,
      "Here": 3149,
      "Ġelevator": 3150,
      "Ġvalue": 3151,
      "Ġregular": 3152,
      "Ġpirate": 3153,
      "Ġapologized": 3154,
      "Ġbulb": 3155,
      "Ġumbrella": 3156,
      "can": 3157,
      "Ġled": 3158,
      "Ġlying": 3159,
      "erable": 3160,
      "Ġlifted": 3161,
      "Ġending": 3162,
      "Ġrestaur": 3163,
      "Ġcandle": 3164,
      "Ġjellyfish": 3165,
      "Ġbarking": 3166,
      "Ġrescue": 3167,
      "Ġenvelope": 3168,
      "Help": 3169,
      "If": 3170,
      "cc": 3171,
      "iv": 3172,
      "Ġsighed": 3173,
      "Ġhours": 3174,
      "Ġgir": 3175,
      "utes": 3176,
      "ulif": 3177,
      "Ġvol": 3178,
      "Ġeye": 3179,
      "Ġfloat": 3180,
      "Ġshoe": 3181,
      "Ġsearch": 3182,
      "issors": 3183,
      "Ġcardboard": 3184,
      "Ġbananas": 3185,
      "uliflower": 3186,
      "night": 3187,
      "time": 3188,
      "Ġmicro": 3189,
      "ĠBear": 3190,
      "Ġshiver": 3191,
      "Ġkis": 3192,
      "Ġscissors": 3193,
      "Ġtray": 3194,
      "Ġacce": 3195,
      "Ġtrick": 3196,
      "ushed": 3197,
      "Ġhumble": 3198,
      "Ġscooter": 3199,
      "zzy": 3200,
      "Ġsy": 3201,
      "iness": 3202,
      "htray": 3203,
      "Ġways": 3204,
      "Ġmiserable": 3205,
      "Ġbushes": 3206,
      "Ġcelebrate": 3207,
      "Ġrestaurant": 3208,
      "Qu": 3209,
      "cream": 3210,
      "live": 3211,
      "Ġtube": 3212,
      "inal": 3213,
      "Ġlow": 3214,
      "Ġthirst": 3215,
      "Ġyet": 3216,
      "Ġstage": 3217,
      "Ġscatter": 3218,
      "Ġflute": 3219,
      "Ġsnee": 3220,
      "Ġsandc": 3221,
      "Ġmissile": 3222,
      "Ġminutes": 3223,
      "ĠFreddy": 3224,
      "Ġ'": 3225,
      "ilty": 3226,
      "Ġstat": 3227,
      "stairs": 3228,
      "chan": 3229,
      "Ġashtray": 3230,
      "Ġang": 3231,
      "Ġcoll": 3232,
      "Ġgrapes": 3233,
      "Ġgrown": 3234,
      "Ġeng": 3235,
      "Ġguilty": 3236,
      "Ġtroubled": 3237,
      "Ġdisappeared": 3238,
      "Ġgarage": 3239,
      "cano": 3240,
      "Ġvolcano": 3241,
      "aid": 3242,
      "nger": 3243,
      "Ġhoop": 3244,
      "Ġlime": 3245,
      "Ġsock": 3246,
      "Ġdove": 3247,
      "Ġrece": 3248,
      "Ġcauliflower": 3249,
      "Ġmechan": 3250,
      "Who": 3251,
      "Ġcompl": 3252,
      "Ġcheap": 3253,
      "Ġador": 3254,
      "Ġquar": 3255,
      "Ġpale": 3256,
      "Ġmarch": 3257,
      "Ġwhispered": 3258,
      "Ġaeroplane": 3259,
      "Ġthirsty": 3260,
      "Ġmechanic": 3261,
      "Ġhook": 3262,
      "inoc": 3263,
      "ĠTr": 3264,
      "Ġlamp": 3265,
      "Ġsaf": 3266,
      "Ġsaus": 3267,
      "Ġyours": 3268,
      "Ġhurts": 3269,
      "Ġjeep": 3270,
      "Ġstanding": 3271,
      "Ġspring": 3272,
      "Ġadorable": 3273,
      "Ġing": 3274,
      "Ġsil": 3275,
      "Ġwitch": 3276,
      "iginal": 3277,
      "Ġstation": 3278,
      "Ġstream": 3279,
      "ĠBird": 3280,
      "Ġimpro": 3281,
      "Ġshouldn": 3282,
      "Ġmaze": 3283,
      "Ġzip": 3284,
      "Ġcrazy": 3285,
      "redient": 3286,
      "Ġattic": 3287,
      "Ġrepair": 3288,
      "Ġpowder": 3289,
      "Ġingredient": 3290,
      "appy": 3291,
      "cut": 3292,
      "most": 3293,
      "inary": 3294,
      "Ġthose": 3295,
      "Ġshore": 3296,
      "Ġknot": 3297,
      "Ġknock": 3298,
      "Ġalmost": 3299,
      "Ġmanag": 3300,
      "Ġclap": 3301,
      "Ġchoose": 3302,
      "Ġoffice": 3303,
      "Ġparrot": 3304,
      "ĠRose": 3305,
      "Ġrubbed": 3306,
      "Ġruined": 3307,
      "Ġgraceful": 3308,
      "Lila": 3309,
      "gu": 3310,
      "ush": 3311,
      "vice": 3312,
      "Ġpist": 3313,
      "Ġroof": 3314,
      "ĠLulu": 3315,
      "Ġlaund": 3316,
      "umpet": 3317,
      "Ġuniver": 3318,
      "Ġtrumpet": 3319,
      "Ġpeb": 3320,
      "Ġskull": 3321,
      "ĠAndy": 3322,
      "Ġoriginal": 3323,
      "Ġtwirl": 3324,
      "Ġbags": 3325,
      "cycle": 3326,
      "Ġattract": 3327,
      "Ġcrawl": 3328,
      "Ġpersist": 3329,
      "Ġnuts": 3330,
      "Ġsalad": 3331,
      "Ġriding": 3332,
      "Ġpistol": 3333,
      "Ġlaundry": 3334,
      "ps": 3335,
      "ready": 3336,
      "Ġlit": 3337,
      "Ġmelt": 3338,
      "ĠSt": 3339,
      "llip": 3340,
      "ention": 3341,
      "akes": 3342,
      "Ġcareless": 3343,
      "Ġneeds": 3344,
      "Ġenjoying": 3345,
      "Ġsteak": 3346,
      "Ġearth": 3347,
      "uper": 3348,
      "ĠBuzz": 3349,
      "Ġcherries": 3350,
      "Ġfreezer": 3351,
      "Ġattractive": 3352,
      "llipop": 3353,
      "xious": 3354,
      "ym": 3355,
      "Ġlollipop": 3356,
      "Ġanxious": 3357,
      "Ġalready": 3358,
      "Ġsniff": 3359,
      "Ġenv": 3360,
      "ĠDoggy": 3361,
      "Ġsailor": 3362,
      "Ġminer": 3363,
      "Ġthinking": 3364,
      "Ġreturn": 3365,
      "Ġengine": 3366,
      "Ġquarrel": 3367,
      "cil": 3368,
      "ccer": 3369,
      "Ġwife": 3370,
      "ines": 3371,
      "Ġfig": 3372,
      "Ġonce": 3373,
      "htub": 3374,
      "Ġleop": 3375,
      "Ġmem": 3376,
      "Ġmeadow": 3377,
      "Ġcoins": 3378,
      "Ġorder": 3379,
      "Ġtears": 3380,
      "Ġstronger": 3381,
      "Ġprov": 3382,
      "Ġbathtub": 3383,
      "Ġspeed": 3384,
      "Ġcricket": 3385,
      "Ġstatue": 3386,
      "Ġangel": 3387,
      "inocer": 3388,
      "Ġpersistent": 3389,
      "cu": 3390,
      "ination": 3391,
      "Ġcone": 3392,
      "Ġgym": 3393,
      "ĠMama": 3394,
      "Ġscale": 3395,
      "Ġsunf": 3396,
      "Ġwalks": 3397,
      "Ġglove": 3398,
      "Ġsquare": 3399,
      "Ġlistening": 3400,
      "Ġcompass": 3401,
      "Ġsmoke": 3402,
      "Ġfilthy": 3403,
      "Ġhunter": 3404,
      "Ġsquee": 3405,
      "Ġingredients": 3406,
      "loo": 3407,
      "lier": 3408,
      "par": 3409,
      "Ġsle": 3410,
      "Ġsuper": 3411,
      "Ġnail": 3412,
      "Ġgum": 3413,
      "ĠSome": 3414,
      "uth": 3415,
      "Ġrug": 3416,
      "Ġsoar": 3417,
      "Ġkay": 3418,
      "Ġjug": 3419,
      "Ġraven": 3420,
      "Ġdeaf": 3421,
      "Ġtravel": 3422,
      "ĠPe": 3423,
      "Ġhears": 3424,
      "Ġbehave": 3425,
      "Ġmatt": 3426,
      "Ġpencil": 3427,
      "Ġobject": 3428,
      "Ġflashlight": 3429,
      "inoceros": 3430,
      "ef": 3431,
      "ĠTiny": 3432,
      "anged": 3433,
      "Ġsoccer": 3434,
      "Ġhelpless": 3435,
      "Ġcats": 3436,
      "ief": 3437,
      "ĠWill": 3438,
      "Ġvine": 3439,
      "Ġmole": 3440,
      "Ġvend": 3441,
      "Ġearlier": 3442,
      "dest": 3443,
      "ĠSpike": 3444,
      "Ġcartoon": 3445,
      "host": 3446,
      "sses": 3447,
      "Ġgro": 3448,
      "Ġadvice": 3449,
      "Ġtwig": 3450,
      "Ġthankful": 3451,
      "mbol": 3452,
      "Ġshape": 3453,
      "Ġsparkly": 3454,
      "umbled": 3455,
      "Ġlively": 3456,
      "Ġticket": 3457,
      "Ġcompetitive": 3458,
      "Ġsymbol": 3459,
      "Ġmattress": 3460,
      "Gra": 3461,
      "sc": 3462,
      "Ġfour": 3463,
      "ates": 3464,
      "Ġghost": 3465,
      "Ġoak": 3466,
      "Ġtimes": 3467,
      "iew": 3468,
      "Ġpeach": 3469,
      "Ġchess": 3470,
      "Ġcooler": 3471,
      "Ġperm": 3472,
      "Ġdreams": 3473,
      "Ġdreamed": 3474,
      "Ġpolish": 3475,
      "Ġshrimp": 3476,
      "uggled": 3477,
      "Ġcollar": 3478,
      "Ġcompassion": 3479,
      "Ġvendor": 3480,
      "Mum": 3481,
      "Ġtem": 3482,
      "Ġsize": 3483,
      "Ġur": 3484,
      "Ġstaff": 3485,
      "Ġreef": 3486,
      "ages": 3487,
      "Ġunpack": 3488,
      "Ġmodest": 3489,
      "affe": 3490,
      "ailable": 3491,
      "Ġjournal": 3492,
      "Ġeventually": 3493,
      "Ġenvious": 3494,
      "Ġleopard": 3495,
      "Ġkayak": 3496,
      "ubby": 3497,
      "zard": 3498,
      "Ġbump": 3499,
      "Ġnurse": 3500,
      "Ġchubby": 3501,
      "Ġexciting": 3502,
      "Ġtruth": 3503,
      "Ġskipped": 3504,
      "ĠMomo": 3505,
      "Ġrub": 3506,
      "Ġfallen": 3507,
      "Ġears": 3508,
      "Ġpengu": 3509,
      "Ġmustache": 3510,
      "Ġvalu": 3511,
      "Ġrhinoceros": 3512,
      "Ġignorant": 3513,
      "Ġordinary": 3514,
      "Ġsend": 3515,
      "Ġbicy": 3516,
      "Ġlizard": 3517,
      "Ġcact": 3518,
      "Ġwallet": 3519,
      "Ġnowhere": 3520,
      "Ġmusician": 3521,
      "Ġnapkin": 3522,
      "Ġbasketball": 3523,
      "Ġstretch": 3524,
      "Ġmotorcycle": 3525,
      "Ġscrat": 3526,
      "ĠSnow": 3527,
      "Ġgiraffe": 3528,
      "zed": 3529,
      "Ġfile": 3530,
      "ressed": 3531,
      "omes": 3532,
      "ature": 3533,
      "Ġrag": 3534,
      "Ġlean": 3535,
      "ĠFo": 3536,
      "Ġchanged": 3537,
      "Ġanywhere": 3538,
      "Ġview": 3539,
      "ipe": 3540,
      "Ġcalling": 3541,
      "Ġbedroom": 3542,
      "Ġbutterflies": 3543,
      "Ġtricks": 3544,
      "Ġgrowing": 3545,
      "ubbles": 3546,
      "Ġgifted": 3547,
      "Ġfolder": 3548,
      "Ġtools": 3549,
      "Ġavailable": 3550,
      "Ġscreen": 3551,
      "cakes": 3552,
      "ĠU": 3553,
      "Ġadded": 3554,
      "Ġlend": 3555,
      "Ġdust": 3556,
      "Ġcamp": 3557,
      "Ġpian": 3558,
      "Ġmop": 3559,
      "Ġhalf": 3560,
      "Ġhanger": 3561,
      "There": 3562,
      "Ġseal": 3563,
      "Ġchirp": 3564,
      "Ġgrill": 3565,
      "aky": 3566,
      "Ġboats": 3567,
      "Ġstickers": 3568,
      "Ġdrawings": 3569,
      "Ġbarber": 3570,
      "ations": 3571,
      "Ġpractice": 3572,
      "Ġsalt": 3573,
      "Ġgathered": 3574,
      "Ġmanaged": 3575,
      "Ġgrocer": 3576,
      "Ġpiano": 3577,
      "eer": 3578,
      "Ġitch": 3579,
      "hero": 3580,
      "esday": 3581,
      "Ġcomfort": 3582,
      "Ġmass": 3583,
      "Ġtells": 3584,
      "Ġbandage": 3585,
      "Ġfigure": 3586,
      "Ġsuperhero": 3587,
      "Al": 3588,
      "Mama": 3589,
      "Tweet": 3590,
      "Ġcop": 3591,
      "Ġcudd": 3592,
      "Ġpurse": 3593,
      "iling": 3594,
      "Ġyaw": 3595,
      "icer": 3596,
      "Ġthemselves": 3597,
      "Ġcliff": 3598,
      "Ġpole": 3599,
      "Ġimpressed": 3600,
      "Ġclimbing": 3601,
      "Ġguard": 3602,
      "Ġjokes": 3603,
      "Ġvaluable": 3604,
      "son": 3605,
      "Ġtire": 3606,
      "Ġsink": 3607,
      "Ġbin": 3608,
      "Ġcam": 3609,
      "Ġpor": 3610,
      "arn": 3611,
      "Ġitself": 3612,
      "ete": 3613,
      "ceed": 3614,
      "Ġstairs": 3615,
      "Ġsepar": 3616,
      "Ġspun": 3617,
      "Ġputting": 3618,
      "Ġnicely": 3619,
      "Ġsucceed": 3620,
      "Ġstrawberry": 3621,
      "Ġsweater": 3622,
      "Ġcomplain": 3623,
      "Ġslept": 3624,
      "Ġcompassionate": 3625,
      "Ġ3": 3626,
      "Ġot": 3627,
      "Ġhomes": 3628,
      "arian": 3629,
      "Ġgust": 3630,
      "Ġthief": 3631,
      "Ġchasing": 3632,
      "Ġvide": 3633,
      "Ġgrape": 3634,
      "Ġneedle": 3635,
      "Ġraced": 3636,
      "Ġhanging": 3637,
      "ĠTrue": 3638,
      "Ġpebble": 3639,
      "Ġbicycle": 3640,
      "Ġcactus": 3641,
      "Ġotter": 3642,
      "hip": 3643,
      "ĠQu": 3644,
      "ndpa": 3645,
      "Ġcurt": 3646,
      "Ġcity": 3647,
      "Ġgear": 3648,
      "ric": 3649,
      "Ġeither": 3650,
      "Ġfriendship": 3651,
      "place": 3652,
      "Ġbrush": 3653,
      "Ġtowers": 3654,
      "Ġlightning": 3655,
      "Ġplanet": 3656,
      "Inside": 3657,
      "Ġceiling": 3658,
      "Ġspeak": 3659,
      "Ġfearful": 3660,
      "Ġunlock": 3661,
      "azz": 3662,
      "ipping": 3663,
      "aroo": 3664,
      "Ġyarn": 3665,
      "Ġmoms": 3666,
      "Ġkang": 3667,
      "tern": 3668,
      "ured": 3669,
      "Ġleash": 3670,
      "Ġpee": 3671,
      "Ġhaircut": 3672,
      "Ġguess": 3673,
      "Ġbounced": 3674,
      "Ġactually": 3675,
      "Ġscrew": 3676,
      "Ġwiped": 3677,
      "Ġkissed": 3678,
      "Ġsunflower": 3679,
      "Ġcamera": 3680,
      "Ġcurtain": 3681,
      "Ġkangaroo": 3682,
      "Ġax": 3683,
      "erc": 3684,
      "ckey": 3685,
      "Ġhappiness": 3686,
      "Ġforward": 3687,
      "ĠMany": 3688,
      "indeer": 3689,
      "asses": 3690,
      "Ġpoke": 3691,
      "Ġhockey": 3692,
      "Ġclock": 3693,
      "Ġfireplace": 3694,
      "Ġlights": 3695,
      "Ġfalling": 3696,
      "Ġbuttons": 3697,
      "Ġwaffle": 3698,
      "astle": 3699,
      "gen": 3700,
      "Ġten": 3701,
      "edy": 3702,
      "Ġtoe": 3703,
      "Ġdeter": 3704,
      "Ġmitten": 3705,
      "Ġneat": 3706,
      "Ġseas": 3707,
      "Ġspear": 3708,
      "Ġexcite": 3709,
      "Ġblueber": 3710,
      "body": 3711,
      "Ġpretending": 3712,
      "Ġprevent": 3713,
      "Ġcupboard": 3714,
      "Ġmeeting": 3715,
      "Ġaxe": 3716,
      "Molly": 3717,
      "hus": 3718,
      "Ġtuna": 3719,
      "Ġdess": 3720,
      "Ġweather": 3721,
      "Ġreindeer": 3722,
      "Their": 3723,
      "Ġexerc": 3724,
      "iest": 3725,
      "Ġpepper": 3726,
      "Ġsnap": 3727,
      "Ġdrawer": 3728,
      "Ġtelling": 3729,
      "Ġmarbles": 3730,
      "Ġpoint": 3731,
      "Ġwheat": 3732,
      "umbers": 3733,
      "Ġwheels": 3734,
      "Ġenthus": 3735,
      "Ġimprove": 3736,
      "Ġtemp": 3737,
      "Ġdeterm": 3738,
      "Ġdessert": 3739,
      "Did": 3740,
      "Ġer": 3741,
      "Ġhive": 3742,
      "Ġsew": 3743,
      "Ġexcitedly": 3744,
      "ĠElla": 3745,
      "Ġenc": 3746,
      "Ġrestless": 3747,
      "Ġbaking": 3748,
      "lete": 3749,
      "Ġcrawling": 3750,
      "Ġsupport": 3751,
      "Ġmelon": 3752,
      "Ġsandcastle": 3753,
      "lau": 3754,
      "shed": 3755,
      "yer": 3756,
      "ision": 3757,
      "ley": 3758,
      "lend": 3759,
      "Ġins": 3760,
      "Ġinse": 3761,
      "Ġstumbled": 3762,
      "Ġfort": 3763,
      "ĠLater": 3764,
      "Ġeaten": 3765,
      "Ġsne": 3766,
      "Ġyoga": 3767,
      "Ġlawyer": 3768,
      "Ġhurry": 3769,
      "Ġnods": 3770,
      "Ġmuffin": 3771,
      "Ġpilot": 3772,
      "Ġnumbers": 3773,
      "Ġupstairs": 3774,
      "stri": 3775,
      "seum": 3776,
      "Ġshield": 3777,
      "Ġnovel": 3778,
      "Ġmuseum": 3779,
      "Ġlab": 3780,
      "Ġbury": 3781,
      "Ġtear": 3782,
      "Ġcryst": 3783,
      "Ġdear": 3784,
      "Ġdishes": 3785,
      "Ġmessage": 3786,
      "Ġswinging": 3787,
      "Ġprep": 3788,
      "Sarah": 3789,
      "Ġcarrying": 3790,
      "Ġavoc": 3791,
      "Ġstirred": 3792,
      "Ġtornado": 3793,
      "under": 3794,
      "Ġcries": 3795,
      "Ġherb": 3796,
      "Ġfactor": 3797,
      "Ġchose": 3798,
      "Ġblin": 3799,
      "Ġcomplete": 3800,
      "Ġspinning": 3801,
      "Ġstuffed": 3802,
      "Ġsausage": 3803,
      "Ġcrystal": 3804,
      "Ġtask": 3805,
      "Ġbill": 3806,
      "Ġmall": 3807,
      "Ġmild": 3808,
      "ĠSunny": 3809,
      "Ġyield": 3810,
      "Ġrushed": 3811,
      "Ġsoil": 3812,
      "Thanks": 3813,
      "Ġraft": 3814,
      "Ġharder": 3815,
      "Ġmagn": 3816,
      "Ġpainter": 3817,
      "Ġrubb": 3818,
      "Ġburn": 3819,
      "Ġfactory": 3820,
      "aced": 3821,
      "bra": 3822,
      "Ġfather": 3823,
      "ĠBubbles": 3824,
      "chair": 3825,
      "Ġshocked": 3826,
      "Ġreward": 3827,
      "urb": 3828,
      "axi": 3829,
      "Ġcalend": 3830,
      "Ġchoice": 3831,
      "Ġvet": 3832,
      "Ġshows": 3833,
      "Ġshowing": 3834,
      "Ġpicks": 3835,
      "Ġfog": 3836,
      "Ġdancer": 3837,
      "Ġcushion": 3838,
      "Ġcreek": 3839,
      "oli": 3840,
      "gging": 3841,
      "Ġsteam": 3842,
      "Ġwalls": 3843,
      "Ġpointing": 3844,
      "Ġdisturb": 3845,
      "Ġincl": 3846,
      "Ġmedal": 3847,
      "Ġcircles": 3848,
      "Ġmistakes": 3849,
      "Ġlemonade": 3850,
      "Ġjewelry": 3851,
      "Ġhuman": 3852,
      "Ġstretched": 3853,
      "ccoli": 3854,
      "Ġporch": 3855,
      "Mr": 3856,
      "Sorry": 3857,
      "Well": 3858,
      "nce": 3859,
      "arm": 3860,
      "arry": 3861,
      "Ġnature": 3862,
      "uckily": 3863,
      "Ġchance": 3864,
      "Ġprun": 3865,
      "Ġzipper": 3866,
      "Ġsett": 3867,
      "Ġarmchair": 3868,
      "Ġharsh": 3869,
      "Ġdistant": 3870,
      "Ġclassroom": 3871,
      "Ġpenguin": 3872,
      "Ġencou": 3873,
      "strich": 3874,
      "Ġsight": 3875,
      "Ġbase": 3876,
      "Ġpun": 3877,
      "stic": 3878,
      "ugged": 3879,
      "Ġknob": 3880,
      "Ġmeas": 3881,
      "acht": 3882,
      "Ġchalk": 3883,
      "Ġlotion": 3884,
      "Ġtap": 3885,
      "iastic": 3886,
      "Ġtrade": 3887,
      "Ġbroccoli": 3888,
      "Ġsquash": 3889,
      "Ġsquirrels": 3890,
      "ĠRex": 3891,
      "Ġhats": 3892,
      "Ġpattern": 3893,
      "Ġbeef": 3894,
      "Ġphot": 3895,
      "Ġletters": 3896,
      "Ġadmired": 3897,
      "Ġenthusiastic": 3898,
      "Ġmagnet": 3899,
      "ience": 3900,
      "ye": 3901,
      "yster": 3902,
      "Ġtaxi": 3903,
      "anny": 3904,
      "Ġthunder": 3905,
      "Ġyacht": 3906,
      "keep": 3907,
      "Ġrake": 3908,
      "seek": 3909,
      "Ġwhip": 3910,
      "Ġhelper": 3911,
      "Ġalarm": 3912,
      "ĠJake": 3913,
      "Ġchain": 3914,
      "Ġhose": 3915,
      "Ġfastest": 3916,
      "rmomet": 3917,
      "Ġhoping": 3918,
      "Ġcollection": 3919,
      "Ġfingers": 3920,
      "Ġfisher": 3921,
      "Ġaccept": 3922,
      "Ġprovide": 3923,
      "Ġexcitement": 3924,
      "Jane": 3925,
      "ney": 3926,
      "Ġhorn": 3927,
      "Ġfu": 3928,
      "Ġfre": 3929,
      "imney": 3930,
      "ison": 3931,
      "Ġoyster": 3932,
      "Ġgolf": 3933,
      "Ġspell": 3934,
      "Ġflame": 3935,
      "Ġswung": 3936,
      "Ġchimney": 3937,
      "Ġbull": 3938,
      "Ġlouder": 3939,
      "ĠPete": 3940,
      "Ġrules": 3941,
      "Ġmarry": 3942,
      "Ġbelongs": 3943,
      "Ġbathe": 3944,
      "Ġproblems": 3945,
      "Ġrolling": 3946,
      "Ġdiary": 3947,
      "Ġmassage": 3948,
      "rmometer": 3949,
      "Ġfisherman": 3950,
      "Ġfresh": 3951,
      ",âĢĿ": 3952,
      "Ġdive": 3953,
      "orted": 3954,
      "Ġostrich": 3955,
      "Ġrepe": 3956,
      "Ġrefused": 3957,
      "Ġext": 3958,
      "Ġpopped": 3959,
      "Ġsnuggled": 3960,
      "Ġhandle": 3961,
      "Ġturkey": 3962,
      "Ġpair": 3963,
      "ĠFloppy": 3964,
      "Ġbarrel": 3965,
      "Ġvest": 3966,
      "Ġcounting": 3967,
      "Ġairport": 3968,
      "Ġjudge": 3969,
      "Ġmint": 3970,
      "Ġregret": 3971,
      "Ġacorns": 3972,
      "Ġdetermined": 3973,
      "Ġcalendar": 3974,
      "Is": 3975,
      "Ġwool": 3976,
      "Ġmill": 3977,
      "Ġreve": 3978,
      "Ġgoal": 3979,
      "ĠFro": 3980,
      "Ġcob": 3981,
      "Ġsunset": 3982,
      "Ġended": 3983,
      "Ġgrowl": 3984,
      "Ġfixing": 3985,
      "Ġbreat": 3986,
      "ĠCo": 3987,
      "Ġfireman": 3988,
      "Ġsounded": 3989,
      "Ġbaked": 3990,
      "Ġresist": 3991,
      "Ġspotted": 3992,
      "Bobo": 3993,
      "Ġeasily": 3994,
      "Ġshrink": 3995,
      "Ġtelephone": 3996,
      "Ġinsect": 3997,
      "Ġextra": 3998,
      "eor": 3999,
      "Ġed": 4000,
      "Ġtour": 4001,
      "iggle": 4002,
      "Ġoat": 4003,
      "Ġweigh": 4004,
      "illa": 4005,
      "Ġboys": 4006,
      "Ġagainst": 4007,
      "Ġsung": 4008,
      "Ġskirt": 4009,
      "Ġsurprises": 4010,
      "Ġdresses": 4011,
      "Ġtrash": 4012,
      "Ġcontent": 4013,
      "Ġdisag": 4014,
      "Ġbrothers": 4015,
      "Ġwipe": 4016,
      "Ġdiscovered": 4017,
      "web": 4018,
      "ĠBetsy": 4019,
      "ĠFox": 4020,
      "ĠQuack": 4021,
      "keeper": 4022,
      "Ġreveal": 4023,
      "Ġcobweb": 4024,
      "ait": 4025,
      "ĠTina": 4026,
      "Ġpit": 4027,
      "Ġpal": 4028,
      "Ġstones": 4029,
      "Ġshort": 4030,
      "Ġreque": 4031,
      "Ġcane": 4032,
      "iform": 4033,
      "aser": 4034,
      "Ġuniform": 4035,
      "ionary": 4036,
      "Ġdifference": 4037,
      "Ġdelight": 4038,
      "Ġart": 4039,
      "ĠJoey": 4040,
      "Ġhotel": 4041,
      "Ġsplit": 4042,
      "Ġfurn": 4043,
      "Ġblackboard": 4044,
      "Ġdisappear": 4045,
      "Ġdesk": 4046,
      "Ġmicrophone": 4047,
      "Ġvideo": 4048,
      "Ġpalace": 4049,
      "Ġrequest": 4050,
      "iers": 4051,
      "lasses": 4052,
      "mm": 4053,
      "Ġtro": 4054,
      "head": 4055,
      "Ġson": 4056,
      "iture": 4057,
      "Ġdict": 4058,
      "Ġrise": 4059,
      "rage": 4060,
      "Ġlaser": 4061,
      "Ġdecide": 4062,
      "inky": 4063,
      "Ġchecked": 4064,
      "Ġsteel": 4065,
      "Ġveil": 4066,
      "Ġward": 4067,
      "Ġchickens": 4068,
      "Ġimagined": 4069,
      "Ġslides": 4070,
      "Ġfilm": 4071,
      "Ġargue": 4072,
      "Ġsilver": 4073,
      "Ġseparate": 4074,
      "Ġsunglasses": 4075,
      "Ġfurniture": 4076,
      "Ġdictionary": 4077,
      "Go": 4078,
      "Ouch": 4079,
      "Ġfive": 4080,
      "Ġhall": 4081,
      "Ġinf": 4082,
      "Ġshut": 4083,
      "ĠAre": 4084,
      "Ġtaller": 4085,
      "Ġaccidents": 4086,
      "Ġmarble": 4087,
      "ĠGrandpa": 4088,
      "Ġsoldiers": 4089,
      "Ġpanic": 4090,
      "ĠBuzzy": 4091,
      "Ġcabinet": 4092,
      "Grandma": 4093,
      "Ġpeeked": 4094,
      "Ġwardrobe": 4095
    },
    "merges": [
      [
        "Ġ",
        "t"
      ],
      [
        "h",
        "e"
      ],
      [
        "Ġ",
        "a"
      ],
      [
        "Ġ",
        "s"
      ],
      [
        "Ġ",
        "w"
      ],
      [
        "n",
        "d"
      ],
      [
        "Ġt",
        "he"
      ],
      [
        "e",
        "d"
      ],
      [
        "Ġt",
        "o"
      ],
      [
        "Ġ",
        "b"
      ],
      [
        "Ġa",
        "nd"
      ],
      [
        "Ġ",
        "h"
      ],
      [
        "i",
        "n"
      ],
      [
        "Ġ",
        "f"
      ],
      [
        "Ġw",
        "a"
      ],
      [
        "i",
        "t"
      ],
      [
        "r",
        "e"
      ],
      [
        "o",
        "u"
      ],
      [
        "Ġ",
        "T"
      ],
      [
        "Ġ",
        "l"
      ],
      [
        "Ġ",
        "d"
      ],
      [
        "Ġ",
        "c"
      ],
      [
        "Ġ",
        "p"
      ],
      [
        "Ġ",
        "he"
      ],
      [
        "a",
        "y"
      ],
      [
        "Ġ",
        "m"
      ],
      [
        "e",
        "r"
      ],
      [
        "Ġwa",
        "s"
      ],
      [
        "o",
        "m"
      ],
      [
        "i",
        "m"
      ],
      [
        "o",
        "n"
      ],
      [
        "i",
        "l"
      ],
      [
        "a",
        "t"
      ],
      [
        "i",
        "d"
      ],
      [
        "i",
        "s"
      ],
      [
        "a",
        "r"
      ],
      [
        "Ġs",
        "a"
      ],
      [
        "Ġ",
        "n"
      ],
      [
        "Ġ",
        "g"
      ],
      [
        "in",
        "g"
      ],
      [
        "ĠT",
        "he"
      ],
      [
        "Ġh",
        "a"
      ],
      [
        "e",
        "n"
      ],
      [
        "Ġ",
        "S"
      ],
      [
        "o",
        "r"
      ],
      [
        "a",
        "n"
      ],
      [
        "l",
        "e"
      ],
      [
        "l",
        "l"
      ],
      [
        "Ġt",
        "h"
      ],
      [
        "o",
        "t"
      ],
      [
        "Ġhe",
        "r"
      ],
      [
        "il",
        "y"
      ],
      [
        "Ġ",
        "it"
      ],
      [
        "i",
        "r"
      ],
      [
        "e",
        "t"
      ],
      [
        "a",
        "m"
      ],
      [
        "L",
        "ily"
      ],
      [
        "Ġ",
        "u"
      ],
      [
        "O",
        "n"
      ],
      [
        "Ġ",
        "in"
      ],
      [
        "u",
        "t"
      ],
      [
        "o",
        "w"
      ],
      [
        "Ġp",
        "l"
      ],
      [
        "r",
        "i"
      ],
      [
        "Ġ",
        "\""
      ],
      [
        "Ġ",
        "H"
      ],
      [
        "Ġd",
        "ay"
      ],
      [
        "v",
        "er"
      ],
      [
        "Ġb",
        "e"
      ],
      [
        "Ġ",
        "Lily"
      ],
      [
        "c",
        "e"
      ],
      [
        "it",
        "h"
      ],
      [
        "i",
        "g"
      ],
      [
        "Ġ",
        "o"
      ],
      [
        "Ġw",
        "ith"
      ],
      [
        "Ġsa",
        "id"
      ],
      [
        "Ġpl",
        "ay"
      ],
      [
        "p",
        "p"
      ],
      [
        "ĠS",
        "he"
      ],
      [
        "ĠT",
        "im"
      ],
      [
        "c",
        "k"
      ],
      [
        "l",
        "d"
      ],
      [
        "Ġ",
        "e"
      ],
      [
        "m",
        "y"
      ],
      [
        "Ġh",
        "is"
      ],
      [
        "o",
        "o"
      ],
      [
        "Ġ",
        "y"
      ],
      [
        "ĠH",
        "e"
      ],
      [
        "ĠThe",
        "y"
      ],
      [
        "Ġu",
        "p"
      ],
      [
        "Ġs",
        "t"
      ],
      [
        "Ġth",
        "at"
      ],
      [
        "Ġ",
        "on"
      ],
      [
        "k",
        "e"
      ],
      [
        "Ġ",
        "r"
      ],
      [
        "s",
        "t"
      ],
      [
        "k",
        "ed"
      ],
      [
        "Ġm",
        "om"
      ],
      [
        "Ġs",
        "he"
      ],
      [
        "v",
        "e"
      ],
      [
        "n",
        "t"
      ],
      [
        "it",
        "t"
      ],
      [
        "ver",
        "y"
      ],
      [
        "Ġ",
        "I"
      ],
      [
        "'",
        "s"
      ],
      [
        "Ġy",
        "ou"
      ],
      [
        "Ġha",
        "pp"
      ],
      [
        "Ġthe",
        "y"
      ],
      [
        "e",
        "nd"
      ],
      [
        "im",
        "e"
      ],
      [
        "Ġb",
        "ig"
      ],
      [
        "Ġo",
        "f"
      ],
      [
        "Ġf",
        "ri"
      ],
      [
        "itt",
        "le"
      ],
      [
        "Ġfri",
        "end"
      ],
      [
        "Ġl",
        "ittle"
      ],
      [
        "s",
        "e"
      ],
      [
        "en",
        "t"
      ],
      [
        "Ġt",
        "ime"
      ],
      [
        "a",
        "d"
      ],
      [
        "u",
        "n"
      ],
      [
        "Ġha",
        "d"
      ],
      [
        "Ġw",
        "e"
      ],
      [
        "Ġs",
        "o"
      ],
      [
        "he",
        "r"
      ],
      [
        "Ġf",
        "or"
      ],
      [
        "Ġthe",
        "re"
      ],
      [
        "On",
        "e"
      ],
      [
        "a",
        "ll"
      ],
      [
        "ou",
        "ld"
      ],
      [
        "Ġwa",
        "nt"
      ],
      [
        "Ġhapp",
        "y"
      ],
      [
        "Ġ",
        "B"
      ],
      [
        "Ġn",
        "am"
      ],
      [
        "Ġsa",
        "w"
      ],
      [
        "Ġnam",
        "ed"
      ],
      [
        "v",
        "ed"
      ],
      [
        "Ġ",
        "very"
      ],
      [
        "Ġl",
        "i"
      ],
      [
        "Ġn",
        "e"
      ],
      [
        "Ġb",
        "ut"
      ],
      [
        "Ġl",
        "o"
      ],
      [
        "e",
        "s"
      ],
      [
        "On",
        "ce"
      ],
      [
        "c",
        "h"
      ],
      [
        "Ġd",
        "o"
      ],
      [
        "Ġs",
        "h"
      ],
      [
        "Ġup",
        "on"
      ],
      [
        "Ġ",
        "k"
      ],
      [
        "ou",
        "t"
      ],
      [
        "Ġ",
        "M"
      ],
      [
        ".",
        "\""
      ],
      [
        "l",
        "y"
      ],
      [
        "ou",
        "nd"
      ],
      [
        "Ġn",
        "ot"
      ],
      [
        "'",
        "t"
      ],
      [
        "Ġw",
        "h"
      ],
      [
        "ĠTim",
        "my"
      ],
      [
        "e",
        "l"
      ],
      [
        "id",
        "e"
      ],
      [
        "om",
        "e"
      ],
      [
        "h",
        "t"
      ],
      [
        "a",
        "l"
      ],
      [
        "Ġ",
        "re"
      ],
      [
        "Ġb",
        "o"
      ],
      [
        "Ġw",
        "ent"
      ],
      [
        "Ġa",
        "s"
      ],
      [
        "t",
        "er"
      ],
      [
        "Ġhe",
        "l"
      ],
      [
        "Ġa",
        "n"
      ],
      [
        "Ġfriend",
        "s"
      ],
      [
        "a",
        "ke"
      ],
      [
        "Ġhel",
        "p"
      ],
      [
        "Ġwe",
        "re"
      ],
      [
        "Ġto",
        "o"
      ],
      [
        "Ġs",
        "m"
      ],
      [
        "Ġwant",
        "ed"
      ],
      [
        "!",
        "\""
      ],
      [
        "Ġlo",
        "ved"
      ],
      [
        "a",
        "ck"
      ],
      [
        "o",
        "re"
      ],
      [
        "ir",
        "d"
      ],
      [
        "Ġ",
        "Ċ"
      ],
      [
        "ir",
        "l"
      ],
      [
        "Ġto",
        "y"
      ],
      [
        "r",
        "y"
      ],
      [
        "Ġb",
        "ird"
      ],
      [
        "Ġg",
        "irl"
      ],
      [
        "Ġd",
        "id"
      ],
      [
        "Ġ",
        "One"
      ],
      [
        "r",
        "a"
      ],
      [
        "Ġa",
        "ll"
      ],
      [
        "u",
        "g"
      ],
      [
        "T",
        "he"
      ],
      [
        "i",
        "nd"
      ],
      [
        "Ġh",
        "im"
      ],
      [
        "u",
        "r"
      ],
      [
        "am",
        "e"
      ],
      [
        "Ġl",
        "oo"
      ],
      [
        "Ġc",
        "ould"
      ],
      [
        "r",
        "om"
      ],
      [
        "ĠI",
        "t"
      ],
      [
        "Ġ",
        "j"
      ],
      [
        "g",
        "et"
      ],
      [
        "Ġ",
        "out"
      ],
      [
        "w",
        "ay"
      ],
      [
        "e",
        "c"
      ],
      [
        "he",
        "n"
      ],
      [
        "t",
        "ed"
      ],
      [
        "Ġa",
        "t"
      ],
      [
        "get",
        "her"
      ],
      [
        "Ġ",
        "is"
      ],
      [
        "Ġto",
        "gether"
      ],
      [
        "Ġg",
        "o"
      ],
      [
        "Ġk",
        "n"
      ],
      [
        "Ġs",
        "e"
      ],
      [
        "Ġ",
        "A"
      ],
      [
        "Ġf",
        "un"
      ],
      [
        "ĠT",
        "om"
      ],
      [
        "a",
        "in"
      ],
      [
        "ar",
        "d"
      ],
      [
        "u",
        "l"
      ],
      [
        "i",
        "c"
      ],
      [
        "oo",
        "d"
      ],
      [
        "u",
        "e"
      ],
      [
        "ar",
        "k"
      ],
      [
        "Ġc",
        "an"
      ],
      [
        "Ġl",
        "e"
      ],
      [
        "Ġt",
        "re"
      ],
      [
        "il",
        "l"
      ],
      [
        "s",
        "ide"
      ],
      [
        "a",
        "x"
      ],
      [
        "?",
        "\""
      ],
      [
        "Ġbo",
        "y"
      ],
      [
        "Ġas",
        "ked"
      ],
      [
        "Ġsa",
        "d"
      ],
      [
        "Ġc",
        "at"
      ],
      [
        "f",
        "ul"
      ],
      [
        "ow",
        "n"
      ],
      [
        "he",
        "d"
      ],
      [
        "Ġb",
        "ack"
      ],
      [
        "el",
        "t"
      ],
      [
        "g",
        "ht"
      ],
      [
        "Ġr",
        "o"
      ],
      [
        "Ġthe",
        "m"
      ],
      [
        "Ġha",
        "ve"
      ],
      [
        "Ġf",
        "elt"
      ],
      [
        "Ġbe",
        "c"
      ],
      [
        "ot",
        "her"
      ],
      [
        "Ġc",
        "a"
      ],
      [
        "Ġst",
        "ar"
      ],
      [
        "Ġthe",
        "ir"
      ],
      [
        "on",
        "e"
      ],
      [
        "Ġs",
        "c"
      ],
      [
        "ĠM",
        "ax"
      ],
      [
        "Ġa",
        "l"
      ],
      [
        "u",
        "m"
      ],
      [
        "Ġm",
        "an"
      ],
      [
        "Ġc",
        "l"
      ],
      [
        "Ġf",
        "ound"
      ],
      [
        "Ġs",
        "p"
      ],
      [
        "h",
        "ing"
      ],
      [
        "Ġdo",
        "g"
      ],
      [
        "r",
        "ound"
      ],
      [
        "Ġplay",
        "ed"
      ],
      [
        "r",
        "o"
      ],
      [
        "Ġloo",
        "ked"
      ],
      [
        "on",
        "g"
      ],
      [
        "i",
        "ck"
      ],
      [
        "ĠB",
        "ut"
      ],
      [
        "Ġm",
        "e"
      ],
      [
        "Ġsm",
        "il"
      ],
      [
        "Ġc",
        "ar"
      ],
      [
        "Ġb",
        "all"
      ],
      [
        "Ġp",
        "ark"
      ],
      [
        "Ġstar",
        "ted"
      ],
      [
        "Ġc",
        "ame"
      ],
      [
        "Ġa",
        "re"
      ],
      [
        "Ġf",
        "a"
      ],
      [
        "Ġtre",
        "e"
      ],
      [
        "Ġf",
        "e"
      ],
      [
        "om",
        "et"
      ],
      [
        "Ġ",
        "F"
      ],
      [
        "Ġne",
        "w"
      ],
      [
        "Ġw",
        "ould"
      ],
      [
        "Ġmom",
        "my"
      ],
      [
        "s",
        "s"
      ],
      [
        "Ġe",
        "x"
      ],
      [
        "ar",
        "ed"
      ],
      [
        "Ġli",
        "ke"
      ],
      [
        "i",
        "e"
      ],
      [
        "Ġa",
        "g"
      ],
      [
        "Ġwh",
        "at"
      ],
      [
        "u",
        "re"
      ],
      [
        "Ġ",
        "W"
      ],
      [
        "Ġse",
        "e"
      ],
      [
        "Ġdid",
        "n"
      ],
      [
        "Ġm",
        "ake"
      ],
      [
        "Ġs",
        "omet"
      ],
      [
        "ing",
        "s"
      ],
      [
        "Ġn",
        "o"
      ],
      [
        "ri",
        "ed"
      ],
      [
        "Ġw",
        "or"
      ],
      [
        "ad",
        "e"
      ],
      [
        "Ġplay",
        "ing"
      ],
      [
        "d",
        "d"
      ],
      [
        "ou",
        "ght"
      ],
      [
        "a",
        "g"
      ],
      [
        "n",
        "y"
      ],
      [
        "Ġs",
        "ome"
      ],
      [
        "o",
        "p"
      ],
      [
        "Ġm",
        "u"
      ],
      [
        "Ġw",
        "hen"
      ],
      [
        "Ġh",
        "ome"
      ],
      [
        "i",
        "ce"
      ],
      [
        "ou",
        "se"
      ],
      [
        "i",
        "f"
      ],
      [
        "Y",
        "ou"
      ],
      [
        "Ġa",
        "way"
      ],
      [
        "Ġg",
        "ot"
      ],
      [
        "Ġtoy",
        "s"
      ],
      [
        "Ġthe",
        "n"
      ],
      [
        "Ġsmil",
        "ed"
      ],
      [
        "Ġm",
        "ade"
      ],
      [
        "Ġc",
        "o"
      ],
      [
        "Ġ",
        "other"
      ],
      [
        "Ġg",
        "ood"
      ],
      [
        "n",
        "ed"
      ],
      [
        "Ġ",
        "L"
      ],
      [
        "Ġe",
        "very"
      ],
      [
        "Ġwa",
        "l"
      ],
      [
        "t",
        "y"
      ],
      [
        "Ġl",
        "a"
      ],
      [
        "Ġag",
        "ain"
      ],
      [
        "Ġp",
        "ut"
      ],
      [
        "k",
        "ing"
      ],
      [
        "Ġf",
        "ind"
      ],
      [
        "Ġout",
        "side"
      ],
      [
        "a",
        "u"
      ],
      [
        "Ġf",
        "rom"
      ],
      [
        "a",
        "ve"
      ],
      [
        "ĠB",
        "en"
      ],
      [
        "Ġa",
        "round"
      ],
      [
        "b",
        "le"
      ],
      [
        "au",
        "se"
      ],
      [
        "Ġsomet",
        "hing"
      ],
      [
        "oo",
        "k"
      ],
      [
        "en",
        "ed"
      ],
      [
        "e",
        "p"
      ],
      [
        "Ġd",
        "own"
      ],
      [
        "Ġf",
        "l"
      ],
      [
        "way",
        "s"
      ],
      [
        "ig",
        "ht"
      ],
      [
        "Ġbec",
        "ause"
      ],
      [
        "Ġsc",
        "ared"
      ],
      [
        "Ġal",
        "ways"
      ],
      [
        "Ġle",
        "ar"
      ],
      [
        "all",
        "y"
      ],
      [
        ",",
        "\""
      ],
      [
        "Ġli",
        "ked"
      ],
      [
        "Ġwh",
        "o"
      ],
      [
        "Ġs",
        "w"
      ],
      [
        "u",
        "ck"
      ],
      [
        "Ġth",
        "ings"
      ],
      [
        "e",
        "ll"
      ],
      [
        "Ġth",
        "ought"
      ],
      [
        "ou",
        "d"
      ],
      [
        "Ġr",
        "an"
      ],
      [
        "Ġg",
        "et"
      ],
      [
        "ĠS",
        "ue"
      ],
      [
        "u",
        "dd"
      ],
      [
        "Ġd",
        "ec"
      ],
      [
        "Ġ",
        "J"
      ],
      [
        "re",
        "t"
      ],
      [
        "Ġtoo",
        "k"
      ],
      [
        "u",
        "st"
      ],
      [
        "T",
        "im"
      ],
      [
        "Ġm",
        "y"
      ],
      [
        "a",
        "ch"
      ],
      [
        "Ġsm",
        "all"
      ],
      [
        "Ġc",
        "h"
      ],
      [
        "Ġa",
        "b"
      ],
      [
        "an",
        "t"
      ],
      [
        "Ġkn",
        "e"
      ],
      [
        "Ġkn",
        "ow"
      ],
      [
        "Ġe",
        "at"
      ],
      [
        "a",
        "s"
      ],
      [
        "Ġh",
        "ouse"
      ],
      [
        "it",
        "ed"
      ],
      [
        "Ġab",
        "out"
      ],
      [
        "Ġt",
        "ried"
      ],
      [
        "p",
        "l"
      ],
      [
        "Ġca",
        "re"
      ],
      [
        "Ġto",
        "ld"
      ],
      [
        "an",
        "k"
      ],
      [
        "is",
        "t"
      ],
      [
        "f",
        "ter"
      ],
      [
        "T",
        "h"
      ],
      [
        "id",
        "ed"
      ],
      [
        "ĠS",
        "am"
      ],
      [
        "Ġb",
        "l"
      ],
      [
        "Ġdec",
        "ided"
      ],
      [
        "pp",
        "ed"
      ],
      [
        "Ġyou",
        "r"
      ],
      [
        "Ġan",
        "y"
      ],
      [
        "Ġkne",
        "w"
      ],
      [
        "Ġin",
        "t"
      ],
      [
        "Ġp",
        "r"
      ],
      [
        "Ġs",
        "ay"
      ],
      [
        "f",
        "e"
      ],
      [
        "Ġb",
        "r"
      ],
      [
        "ou",
        "s"
      ],
      [
        "Ġlear",
        "ned"
      ],
      [
        "it",
        "e"
      ],
      [
        "is",
        "h"
      ],
      [
        "il",
        "e"
      ],
      [
        "Ġl",
        "ot"
      ],
      [
        "Ġ",
        "You"
      ],
      [
        "q",
        "u"
      ],
      [
        "ĠF",
        "rom"
      ],
      [
        "p",
        "ot"
      ],
      [
        "Ġex",
        "c"
      ],
      [
        "Ġp",
        "ret"
      ],
      [
        "Ġt",
        "a"
      ],
      [
        "Ġd",
        "ad"
      ],
      [
        "Ġb",
        "u"
      ],
      [
        "er",
        "s"
      ],
      [
        "Ġp",
        "o"
      ],
      [
        "udd",
        "en"
      ],
      [
        "nd",
        "er"
      ],
      [
        "Ġmu",
        "ch"
      ],
      [
        "Ġ",
        "v"
      ],
      [
        "udden",
        "ly"
      ],
      [
        "a",
        "re"
      ],
      [
        "Ġla",
        "ug"
      ],
      [
        "is",
        "e"
      ],
      [
        "i",
        "ve"
      ],
      [
        "Ġ",
        "ke"
      ],
      [
        "o",
        "b"
      ],
      [
        "Ġm",
        "ore"
      ],
      [
        "Ġbo",
        "x"
      ],
      [
        "Ġfe",
        "el"
      ],
      [
        "a",
        "ce"
      ],
      [
        "Ġw",
        "ill"
      ],
      [
        "Ġs",
        "un"
      ],
      [
        "Ġli",
        "ved"
      ],
      [
        "u",
        "c"
      ],
      [
        "Ġh",
        "ug"
      ],
      [
        "ot",
        "h"
      ],
      [
        "um",
        "p"
      ],
      [
        "ĠS",
        "pot"
      ],
      [
        "v",
        "en"
      ],
      [
        "Ġint",
        "o"
      ],
      [
        "Ġon",
        "e"
      ],
      [
        "i",
        "a"
      ],
      [
        "Ġg",
        "ra"
      ],
      [
        "Ġsh",
        "ow"
      ],
      [
        "Ġexc",
        "ited"
      ],
      [
        "Ġg",
        "ave"
      ],
      [
        "ĠH",
        "er"
      ],
      [
        "at",
        "e"
      ],
      [
        "Ġu",
        "n"
      ],
      [
        "Ġne",
        "ed"
      ],
      [
        "Ġh",
        "ow"
      ],
      [
        "Ġro",
        "om"
      ],
      [
        "Ġh",
        "o"
      ],
      [
        "a",
        "p"
      ],
      [
        "Ġin",
        "side"
      ],
      [
        "ur",
        "p"
      ],
      [
        "et",
        "ter"
      ],
      [
        "Ġwa",
        "ter"
      ],
      [
        "Ġp",
        "ick"
      ],
      [
        "or",
        "t"
      ],
      [
        "Ġt",
        "r"
      ],
      [
        "Ġman",
        "y"
      ],
      [
        "Ġt",
        "ake"
      ],
      [
        "Ġcould",
        "n"
      ],
      [
        "Ġp",
        "e"
      ],
      [
        "Ġ",
        "if"
      ],
      [
        "i",
        "z"
      ],
      [
        "ou",
        "r"
      ],
      [
        "Ġs",
        "k"
      ],
      [
        "Ġg",
        "re"
      ],
      [
        "ĠS",
        "o"
      ],
      [
        "Ġloo",
        "k"
      ],
      [
        "d",
        "y"
      ],
      [
        "Ġ",
        "D"
      ],
      [
        "Ġbec",
        "ame"
      ],
      [
        "ĠA",
        "nd"
      ],
      [
        "Ġp",
        "u"
      ],
      [
        "Ġpret",
        "ty"
      ],
      [
        "Ġl",
        "ong"
      ],
      [
        "Ġo",
        "p"
      ],
      [
        "Ġbe",
        "st"
      ],
      [
        "Ġc",
        "le"
      ],
      [
        "ur",
        "t"
      ],
      [
        "Ġo",
        "ver"
      ],
      [
        "W",
        "h"
      ],
      [
        "B",
        "ut"
      ],
      [
        "Ġth",
        "an"
      ],
      [
        "e",
        "m"
      ],
      [
        "Ġj",
        "ust"
      ],
      [
        "Ġf",
        "i"
      ],
      [
        "Ġr",
        "un"
      ],
      [
        "l",
        "f"
      ],
      [
        "Ġth",
        "is"
      ],
      [
        "Ġb",
        "etter"
      ],
      [
        "Ġ",
        "im"
      ],
      [
        "urp",
        "r"
      ],
      [
        "Ġb",
        "oth"
      ],
      [
        "Ġr",
        "ed"
      ],
      [
        "Ġm",
        "o"
      ],
      [
        "s",
        "ed"
      ],
      [
        "he",
        "re"
      ],
      [
        "Ġs",
        "urpr"
      ],
      [
        "g",
        "ed"
      ],
      [
        "is",
        "ed"
      ],
      [
        "le",
        "w"
      ],
      [
        "in",
        "y"
      ],
      [
        "Ġ",
        "E"
      ],
      [
        "Ġst",
        "r"
      ],
      [
        "g",
        "e"
      ],
      [
        "Ġk",
        "ind"
      ],
      [
        "Ġbe",
        "ar"
      ],
      [
        "Ġe",
        "nd"
      ],
      [
        "Y",
        "es"
      ],
      [
        "Ġfa",
        "st"
      ],
      [
        "uc",
        "y"
      ],
      [
        "Ġs",
        "l"
      ],
      [
        "m",
        "a"
      ],
      [
        "Ġg",
        "r"
      ],
      [
        "Ġe",
        "ven"
      ],
      [
        "b",
        "b"
      ],
      [
        "Ġcare",
        "ful"
      ],
      [
        "in",
        "k"
      ],
      [
        "Ġfl",
        "ow"
      ],
      [
        "Ġwa",
        "t"
      ],
      [
        "Ġlaug",
        "hed"
      ],
      [
        "c",
        "hed"
      ],
      [
        "im",
        "al"
      ],
      [
        "Ġd",
        "re"
      ],
      [
        "Ġan",
        "imal"
      ],
      [
        "Ġf",
        "ly"
      ],
      [
        "ĠM",
        "ia"
      ],
      [
        "es",
        "s"
      ],
      [
        "Ġto",
        "w"
      ],
      [
        "ĠH",
        "is"
      ],
      [
        "Ġu",
        "nder"
      ],
      [
        "ĠM",
        "om"
      ],
      [
        "Ġn",
        "ice"
      ],
      [
        "b",
        "er"
      ],
      [
        "Ġ",
        "or"
      ],
      [
        "Ġj",
        "ump"
      ],
      [
        "Ġim",
        "p"
      ],
      [
        "Ġne",
        "ver"
      ],
      [
        "Ġcle",
        "an"
      ],
      [
        "Ġt",
        "ry"
      ],
      [
        "â",
        "Ģ"
      ],
      [
        "Ġl",
        "ist"
      ],
      [
        "C",
        "an"
      ],
      [
        "Ġs",
        "n"
      ],
      [
        "Ġro",
        "ck"
      ],
      [
        "Ġsay",
        "s"
      ],
      [
        "i",
        "on"
      ],
      [
        "Ġf",
        "o"
      ],
      [
        "v",
        "ing"
      ],
      [
        "Ġo",
        "ld"
      ],
      [
        "A",
        "s"
      ],
      [
        "Ġhe",
        "ard"
      ],
      [
        "Ġb",
        "y"
      ],
      [
        "Ġhapp",
        "ened"
      ],
      [
        "Ġcl",
        "o"
      ],
      [
        "p",
        "ec"
      ],
      [
        "ig",
        "h"
      ],
      [
        "Ġ",
        "en"
      ],
      [
        "Ġf",
        "ore"
      ],
      [
        "Ġwal",
        "ked"
      ],
      [
        "The",
        "y"
      ],
      [
        "ĠL",
        "ucy"
      ],
      [
        "in",
        "e"
      ],
      [
        "Ġsa",
        "fe"
      ],
      [
        "c",
        "t"
      ],
      [
        "M",
        "om"
      ],
      [
        "Ġc",
        "om"
      ],
      [
        "i",
        "ed"
      ],
      [
        "f",
        "t"
      ],
      [
        "ĠB",
        "ob"
      ],
      [
        "Ġpr",
        "oud"
      ],
      [
        "Ġf",
        "am"
      ],
      [
        "Ġh",
        "urt"
      ],
      [
        "a",
        "se"
      ],
      [
        "Th",
        "ank"
      ],
      [
        "Ġanimal",
        "s"
      ],
      [
        "Ġco",
        "l"
      ],
      [
        "Ġt",
        "e"
      ],
      [
        "Ġha",
        "nd"
      ],
      [
        "Ġd",
        "on"
      ],
      [
        "Ġ",
        "ri"
      ],
      [
        "Ġf",
        "lew"
      ],
      [
        "Ġf",
        "ood"
      ],
      [
        "or",
        "ry"
      ],
      [
        "il",
        "ly"
      ],
      [
        "'",
        "m"
      ],
      [
        "ou",
        "g"
      ],
      [
        "Ġe",
        "ach"
      ],
      [
        "Ġ",
        "ide"
      ],
      [
        "Ġd",
        "an"
      ],
      [
        "oug",
        "h"
      ],
      [
        "Ġst",
        "or"
      ],
      [
        "Ġl",
        "et"
      ],
      [
        "k",
        "ay"
      ],
      [
        "Ġlot",
        "s"
      ],
      [
        "ad",
        "y"
      ],
      [
        "Ġsk",
        "y"
      ],
      [
        "Ġwh",
        "ile"
      ],
      [
        "Ġp",
        "ic"
      ],
      [
        "Ġre",
        "m"
      ],
      [
        "Ġbe",
        "a"
      ],
      [
        "Ġide",
        "a"
      ],
      [
        "Ġsh",
        "are"
      ],
      [
        "Ġsh",
        "iny"
      ],
      [
        "Ġs",
        "orry"
      ],
      [
        "Ġc",
        "he"
      ],
      [
        "ĠW",
        "hen"
      ],
      [
        "Ġit",
        "s"
      ],
      [
        "Ġre",
        "pl"
      ],
      [
        "Ġpick",
        "ed"
      ],
      [
        "Ġf",
        "ish"
      ],
      [
        "i",
        "al"
      ],
      [
        "Ġg",
        "round"
      ],
      [
        "Ġt",
        "ur"
      ],
      [
        "ar",
        "a"
      ],
      [
        "f",
        "f"
      ],
      [
        "ĠW",
        "e"
      ],
      [
        "Tim",
        "my"
      ],
      [
        "T",
        "om"
      ],
      [
        "i",
        "es"
      ],
      [
        "ec",
        "ial"
      ],
      [
        "Ġsp",
        "ecial"
      ],
      [
        "im",
        "b"
      ],
      [
        "Ġb",
        "ad"
      ],
      [
        "Ġcl",
        "imb"
      ],
      [
        "a",
        "nd"
      ],
      [
        "Ġfam",
        "ily"
      ],
      [
        "Ġc",
        "ome"
      ],
      [
        "n",
        "ing"
      ],
      [
        "Ġl",
        "oud"
      ],
      [
        "Ġre",
        "al"
      ],
      [
        "Ġrepl",
        "ied"
      ],
      [
        "t",
        "ure"
      ],
      [
        "g",
        "ry"
      ],
      [
        "e",
        "x"
      ],
      [
        "r",
        "m"
      ],
      [
        "Ġhug",
        "ged"
      ],
      [
        "Ġu",
        "nt"
      ],
      [
        "Ġfore",
        "st"
      ],
      [
        "Ġr",
        "a"
      ],
      [
        "Ġthan",
        "ked"
      ],
      [
        "Ġw",
        "ind"
      ],
      [
        "m",
        "ore"
      ],
      [
        "Ġof",
        "f"
      ],
      [
        "Ġimp",
        "ort"
      ],
      [
        "Ġany",
        "more"
      ],
      [
        "Ġbea",
        "ut"
      ],
      [
        "Ġb",
        "ro"
      ],
      [
        "Ġwa",
        "y"
      ],
      [
        "i",
        "p"
      ],
      [
        "o",
        "ck"
      ],
      [
        "se",
        "lf"
      ],
      [
        "Ġa",
        "d"
      ],
      [
        "n",
        "n"
      ],
      [
        "Ġne",
        "ar"
      ],
      [
        "Ġh",
        "ard"
      ],
      [
        "oo",
        "l"
      ],
      [
        "b",
        "y"
      ],
      [
        "Ġimport",
        "ant"
      ],
      [
        "Ġst",
        "ill"
      ],
      [
        "e",
        "et"
      ],
      [
        "Ġunt",
        "il"
      ],
      [
        "Ġhelp",
        "ed"
      ],
      [
        "Ġt",
        "w"
      ],
      [
        "ĠT",
        "h"
      ],
      [
        "i",
        "ful"
      ],
      [
        "Ġc",
        "u"
      ],
      [
        "op",
        "le"
      ],
      [
        "Ġbeaut",
        "iful"
      ],
      [
        "un",
        "ny"
      ],
      [
        "Ġlo",
        "ve"
      ],
      [
        "Ġsurpr",
        "ised"
      ],
      [
        "Ġbe",
        "ing"
      ],
      [
        "il",
        "d"
      ],
      [
        "ard",
        "en"
      ],
      [
        "Ġg",
        "arden"
      ],
      [
        "pec",
        "ted"
      ],
      [
        "Ġfe",
        "ll"
      ],
      [
        "ra",
        "w"
      ],
      [
        "Ġ",
        "qu"
      ],
      [
        "iz",
        "ed"
      ],
      [
        "s",
        "h"
      ],
      [
        "um",
        "my"
      ],
      [
        "Ġwal",
        "k"
      ],
      [
        "v",
        "ent"
      ],
      [
        "x",
        "t"
      ],
      [
        "Ġne",
        "xt"
      ],
      [
        "ex",
        "pected"
      ],
      [
        "Ġun",
        "expected"
      ],
      [
        "Ġpe",
        "ople"
      ],
      [
        "Ġf",
        "ar"
      ],
      [
        "Ġg",
        "ive"
      ],
      [
        "Ġcol",
        "or"
      ],
      [
        "Ġg",
        "l"
      ],
      [
        "Ġm",
        "ag"
      ],
      [
        "Ġke",
        "ep"
      ],
      [
        "he",
        "s"
      ],
      [
        "Ġc",
        "ake"
      ],
      [
        "Ġpic",
        "ture"
      ],
      [
        "Ġt",
        "al"
      ],
      [
        "Ġn",
        "ow"
      ],
      [
        "Ġc",
        "re"
      ],
      [
        "Ġsh",
        "ould"
      ],
      [
        "a",
        "k"
      ],
      [
        "Ġshow",
        "ed"
      ],
      [
        "A",
        "fter"
      ],
      [
        "Ġex",
        "pl"
      ],
      [
        "v",
        "or"
      ],
      [
        "Ġc",
        "all"
      ],
      [
        "Ġc",
        "ry"
      ],
      [
        "Ġc",
        "on"
      ],
      [
        "Ġw",
        "o"
      ],
      [
        "em",
        "ber"
      ],
      [
        "Ġp",
        "ar"
      ],
      [
        "Ġa",
        "pp"
      ],
      [
        "Ġh",
        "igh"
      ],
      [
        "Ġgo",
        "ing"
      ],
      [
        "Ġm",
        "a"
      ],
      [
        "Ġa",
        "fter"
      ],
      [
        "ĠS",
        "uddenly"
      ],
      [
        "Ġfa",
        "vor"
      ],
      [
        "g",
        "er"
      ],
      [
        "Ġb",
        "ook"
      ],
      [
        "Ġfavor",
        "ite"
      ],
      [
        "nn",
        "a"
      ],
      [
        "t",
        "h"
      ],
      [
        "Ġf",
        "in"
      ],
      [
        "Ġs",
        "qu"
      ],
      [
        "Ġrem",
        "ember"
      ],
      [
        "L",
        "et"
      ],
      [
        "ĠThe",
        "n"
      ],
      [
        "Ġgre",
        "at"
      ],
      [
        "Ġlo",
        "st"
      ],
      [
        "Ġb",
        "ra"
      ],
      [
        "Ġst",
        "ore"
      ],
      [
        "Ġc",
        "ook"
      ],
      [
        "u",
        "ll"
      ],
      [
        "Ġb",
        "ug"
      ],
      [
        "ag",
        "e"
      ],
      [
        "Ġf",
        "r"
      ],
      [
        "re",
        "l"
      ],
      [
        "f",
        "ore"
      ],
      [
        "Ġop",
        "ened"
      ],
      [
        "Ġa",
        "c"
      ],
      [
        "Ġa",
        "m"
      ],
      [
        "Ġstr",
        "ong"
      ],
      [
        "Ġ",
        "own"
      ],
      [
        "Ġlist",
        "en"
      ],
      [
        "Ġst",
        "ay"
      ],
      [
        "is",
        "hed"
      ],
      [
        "ar",
        "y"
      ],
      [
        "Ġb",
        "ed"
      ],
      [
        "I",
        "t"
      ],
      [
        "Ġe",
        "ver"
      ],
      [
        "Ġdo",
        "or"
      ],
      [
        "p",
        "t"
      ],
      [
        "o",
        "on"
      ],
      [
        "Ġj",
        "o"
      ],
      [
        "W",
        "hen"
      ],
      [
        "Ġp",
        "a"
      ],
      [
        "ĠBen",
        "ny"
      ],
      [
        "Ġw",
        "here"
      ],
      [
        "Ġbe",
        "fore"
      ],
      [
        "Ġfi",
        "x"
      ],
      [
        "Ġflow",
        "ers"
      ],
      [
        "Ġst",
        "o"
      ],
      [
        "S",
        "uddenly"
      ],
      [
        "Ġbo",
        "at"
      ],
      [
        "Ġmag",
        "ic"
      ],
      [
        "N",
        "o"
      ],
      [
        "Wh",
        "at"
      ],
      [
        "ĠJ",
        "ack"
      ],
      [
        "Ġwat",
        "ch"
      ],
      [
        "Ġbut",
        "ter"
      ],
      [
        "Ġbl",
        "ue"
      ],
      [
        "Ġtr",
        "uck"
      ],
      [
        "b",
        "e"
      ],
      [
        "Ġy",
        "ummy"
      ],
      [
        "Ġo",
        "kay"
      ],
      [
        "Ġwor",
        "ry"
      ],
      [
        "le",
        "ep"
      ],
      [
        "Ġat",
        "e"
      ],
      [
        "Ġb",
        "unny"
      ],
      [
        "ĠL",
        "et"
      ],
      [
        "D",
        "on"
      ],
      [
        "Ġstor",
        "y"
      ],
      [
        "Ġno",
        "ise"
      ],
      [
        "u",
        "ff"
      ],
      [
        "Ġpl",
        "ace"
      ],
      [
        "Ġm",
        "or"
      ],
      [
        "le",
        "ase"
      ],
      [
        "Ġw",
        "r"
      ],
      [
        "Ġr",
        "ain"
      ],
      [
        "Ġle",
        "ave"
      ],
      [
        "ĠS",
        "ara"
      ],
      [
        "Ġreal",
        "ized"
      ],
      [
        "Ġm",
        "et"
      ],
      [
        "at",
        "er"
      ],
      [
        "ime",
        "s"
      ],
      [
        "ow",
        "l"
      ],
      [
        "Ġad",
        "vent"
      ],
      [
        "Ġwa",
        "it"
      ],
      [
        "t",
        "hing"
      ],
      [
        "Ġsqu",
        "ir"
      ],
      [
        "ĠE",
        "very"
      ],
      [
        "Ġ",
        "N"
      ],
      [
        "Ġdo",
        "ll"
      ],
      [
        "Ġsquir",
        "rel"
      ],
      [
        "Ġ",
        "R"
      ],
      [
        "ed",
        "dy"
      ],
      [
        "le",
        "s"
      ],
      [
        "ĠW",
        "h"
      ],
      [
        "Th",
        "at"
      ],
      [
        "Ġd",
        "e"
      ],
      [
        "Ġg",
        "ame"
      ],
      [
        "Ġcat",
        "ch"
      ],
      [
        "Ġbutter",
        "f"
      ],
      [
        "ĠA",
        "my"
      ],
      [
        "Ġdre",
        "ss"
      ],
      [
        "Ġb",
        "re"
      ],
      [
        "Ġcall",
        "ed"
      ],
      [
        "t",
        "ing"
      ],
      [
        "Ġhapp",
        "ily"
      ],
      [
        "ĠB",
        "illy"
      ],
      [
        "an",
        "e"
      ],
      [
        "Ġt",
        "ra"
      ],
      [
        "Ġf",
        "ro"
      ],
      [
        "Ġsa",
        "nd"
      ],
      [
        "s",
        "o"
      ],
      [
        "Ġst",
        "ick"
      ],
      [
        "Ġevery",
        "one"
      ],
      [
        "a",
        "ble"
      ],
      [
        "Ġother",
        "s"
      ],
      [
        "ug",
        "ht"
      ],
      [
        "Ġal",
        "so"
      ],
      [
        "Ġneed",
        "ed"
      ],
      [
        "Ġ",
        "P"
      ],
      [
        "bb",
        "it"
      ],
      [
        "Ġbra",
        "ve"
      ],
      [
        "nd",
        "ma"
      ],
      [
        "Ġk",
        "id"
      ],
      [
        "Ġm",
        "on"
      ],
      [
        "en",
        "s"
      ],
      [
        "H",
        "er"
      ],
      [
        "Ġfa",
        "ce"
      ],
      [
        "ir",
        "st"
      ],
      [
        "Ġwa",
        "rm"
      ],
      [
        "Ġsto",
        "pped"
      ],
      [
        "Ġke",
        "pt"
      ],
      [
        "u",
        "ch"
      ],
      [
        "i",
        "ous"
      ],
      [
        "Ġm",
        "ouse"
      ],
      [
        "Ġadvent",
        "ure"
      ],
      [
        "Ġd",
        "if"
      ],
      [
        "re",
        "e"
      ],
      [
        "Ġs",
        "ing"
      ],
      [
        "Ġd",
        "raw"
      ],
      [
        "ir",
        "ed"
      ],
      [
        "Ġbutterf",
        "ly"
      ],
      [
        "Ġso",
        "on"
      ],
      [
        "Ġfro",
        "g"
      ],
      [
        "Ġs",
        "at"
      ],
      [
        "Ġra",
        "bbit"
      ],
      [
        "o",
        "l"
      ],
      [
        "Ġjump",
        "ed"
      ],
      [
        "o",
        "y"
      ],
      [
        "Ġe",
        "y"
      ],
      [
        "Ġfeel",
        "ing"
      ],
      [
        "Ġ",
        "C"
      ],
      [
        "Ġwor",
        "k"
      ],
      [
        "l",
        "ed"
      ],
      [
        "Ġp",
        "ie"
      ],
      [
        "Ġhe",
        "ar"
      ],
      [
        "Ġcon",
        "t"
      ],
      [
        "Ġri",
        "ght"
      ],
      [
        "ĠI",
        "n"
      ],
      [
        "Ġwal",
        "king"
      ],
      [
        "Ġu",
        "se"
      ],
      [
        "Ġsomet",
        "imes"
      ],
      [
        "Ġsl",
        "ide"
      ],
      [
        "k",
        "en"
      ],
      [
        "pp",
        "y"
      ],
      [
        "Ġme",
        "an"
      ],
      [
        "Ġp",
        "ain"
      ],
      [
        "Ġ",
        "our"
      ],
      [
        "Ġu",
        "sed"
      ],
      [
        "Ġn",
        "ight"
      ],
      [
        "Ġbe",
        "l"
      ],
      [
        "u",
        "ed"
      ],
      [
        "Ġth",
        "r"
      ],
      [
        "Ġkid",
        "s"
      ],
      [
        "z",
        "y"
      ],
      [
        "Ġop",
        "en"
      ],
      [
        "Ġd",
        "in"
      ],
      [
        "Ġre",
        "st"
      ],
      [
        "ic",
        "ed"
      ],
      [
        "Ġl",
        "ady"
      ],
      [
        "Ġremember",
        "ed"
      ],
      [
        "Ġha",
        "ving"
      ],
      [
        "W",
        "ow"
      ],
      [
        "dd",
        "ed"
      ],
      [
        "uff",
        "y"
      ],
      [
        "Ġfor",
        "g"
      ],
      [
        "Ġt",
        "ri"
      ],
      [
        "Ġ",
        "ice"
      ],
      [
        "'",
        "re"
      ],
      [
        "j",
        "oy"
      ],
      [
        "g",
        "an"
      ],
      [
        "Ġli",
        "on"
      ],
      [
        "Ġsmil",
        "e"
      ],
      [
        "it",
        "c"
      ],
      [
        "Ġs",
        "ure"
      ],
      [
        "Ġt",
        "ired"
      ],
      [
        "Ġso",
        "ft"
      ],
      [
        "n",
        "er"
      ],
      [
        "Ġs",
        "leep"
      ],
      [
        "H",
        "e"
      ],
      [
        "Ġc",
        "r"
      ],
      [
        "u",
        "it"
      ],
      [
        "Ġ",
        "Can"
      ],
      [
        "L",
        "ook"
      ],
      [
        "Ġc",
        "ut"
      ],
      [
        "ĠS",
        "ally"
      ],
      [
        "Ġfi",
        "re"
      ],
      [
        "Ġf",
        "irst"
      ],
      [
        "d",
        "ay"
      ],
      [
        "Ġ",
        "K"
      ],
      [
        "at",
        "h"
      ],
      [
        "Ġp",
        "rom"
      ],
      [
        "Ġey",
        "es"
      ],
      [
        "ĠA",
        "nna"
      ],
      [
        "ĠF",
        "l"
      ],
      [
        "Ġan",
        "gry"
      ],
      [
        "Ġk",
        "itc"
      ],
      [
        "fe",
        "re"
      ],
      [
        "Ġkitc",
        "hen"
      ],
      [
        "Mom",
        "my"
      ],
      [
        "p",
        "h"
      ],
      [
        "Ġas",
        "k"
      ],
      [
        "Ġdif",
        "fere"
      ],
      [
        "Ġd",
        "is"
      ],
      [
        "Ġu",
        "s"
      ],
      [
        "Ġbr",
        "other"
      ],
      [
        "an",
        "ge"
      ],
      [
        "F",
        "rom"
      ],
      [
        "a",
        "ir"
      ],
      [
        "Ġho",
        "le"
      ],
      [
        "ou",
        "nt"
      ],
      [
        "Ġwat",
        "ched"
      ],
      [
        "st",
        "er"
      ],
      [
        "Ġen",
        "joy"
      ],
      [
        "Ġm",
        "ess"
      ],
      [
        "q",
        "ue"
      ],
      [
        "itt",
        "y"
      ],
      [
        "Ġbird",
        "s"
      ],
      [
        "Ġbl",
        "ock"
      ],
      [
        "Ġbu",
        "y"
      ],
      [
        "u",
        "s"
      ],
      [
        "Ġwe",
        "ar"
      ],
      [
        "Ġd",
        "el"
      ],
      [
        "Ġa",
        "r"
      ],
      [
        "Ġflow",
        "er"
      ],
      [
        "Ġloo",
        "king"
      ],
      [
        "Ġcont",
        "in"
      ],
      [
        "Ġd",
        "ir"
      ],
      [
        "Ġtw",
        "o"
      ],
      [
        "H",
        "i"
      ],
      [
        "Ġclo",
        "s"
      ],
      [
        "Ġhe",
        "ad"
      ],
      [
        "Ġno",
        "dded"
      ],
      [
        "Ġfl",
        "o"
      ],
      [
        "Ġpr",
        "in"
      ],
      [
        "ĠM",
        "r"
      ],
      [
        "Ġs",
        "ound"
      ],
      [
        "ll",
        "ow"
      ],
      [
        "Ġta",
        "st"
      ],
      [
        "ĠD",
        "o"
      ],
      [
        "Ġfar",
        "m"
      ],
      [
        "n",
        "g"
      ],
      [
        "Ġpie",
        "ce"
      ],
      [
        "Ġb",
        "a"
      ],
      [
        "Ġcontin",
        "ued"
      ],
      [
        "Ġd",
        "uck"
      ],
      [
        "Ġ",
        "z"
      ],
      [
        "Ġnot",
        "iced"
      ],
      [
        "ĠJ",
        "o"
      ],
      [
        "Ġpar",
        "ty"
      ],
      [
        "Ġm",
        "is"
      ],
      [
        "Ġhand",
        "s"
      ],
      [
        "Ġh",
        "at"
      ],
      [
        "i",
        "ent"
      ],
      [
        "Ġbe",
        "h"
      ],
      [
        "Ġdiffere",
        "nt"
      ],
      [
        "ell",
        "o"
      ],
      [
        "e",
        "ar"
      ],
      [
        "Ġy",
        "ell"
      ],
      [
        "H",
        "ello"
      ],
      [
        "Ġgre",
        "en"
      ],
      [
        "Ġh",
        "id"
      ],
      [
        "Ġma",
        "king"
      ],
      [
        "Ġtur",
        "ned"
      ],
      [
        "Ġmor",
        "al"
      ],
      [
        "Ġsw",
        "eet"
      ],
      [
        "Ġfo",
        "llow"
      ],
      [
        "Ġsw",
        "im"
      ],
      [
        "Ġbro",
        "ken"
      ],
      [
        "Ġb",
        "ag"
      ],
      [
        "Ġco",
        "ld"
      ],
      [
        "Ġtow",
        "n"
      ],
      [
        "Ġgra",
        "ndma"
      ],
      [
        "B",
        "en"
      ],
      [
        "Ġh",
        "ot"
      ],
      [
        "Ġa",
        "ma"
      ],
      [
        "Ġc",
        "ried"
      ],
      [
        "Ġre",
        "ad"
      ],
      [
        "Ġama",
        "z"
      ],
      [
        "Ġh",
        "un"
      ],
      [
        "Ġc",
        "ool"
      ],
      [
        "one",
        "y"
      ],
      [
        "Ġwor",
        "ked"
      ],
      [
        "Ġfun",
        "ny"
      ],
      [
        "Ġt",
        "ell"
      ],
      [
        "re",
        "ed"
      ],
      [
        "Ġpo",
        "nd"
      ],
      [
        "ec",
        "t"
      ],
      [
        "ĠFl",
        "uffy"
      ],
      [
        "id",
        "ent"
      ],
      [
        "Ġ",
        "G"
      ],
      [
        "Ġh",
        "op"
      ],
      [
        "Ġt",
        "all"
      ],
      [
        "W",
        "e"
      ],
      [
        "Ġto",
        "p"
      ],
      [
        "Ġcar",
        "s"
      ],
      [
        "Ġtre",
        "es"
      ],
      [
        "Ġac",
        "c"
      ],
      [
        "Ġb",
        "ri"
      ],
      [
        "Ġtur",
        "n"
      ],
      [
        "Ġqu",
        "ick"
      ],
      [
        "Ġd",
        "ro"
      ],
      [
        "Ġr",
        "ace"
      ],
      [
        "ay",
        "be"
      ],
      [
        "ll",
        "ed"
      ],
      [
        "Ġca",
        "nd"
      ],
      [
        "Ġcre",
        "am"
      ],
      [
        "ĠA",
        "s"
      ],
      [
        "Ġsc",
        "ary"
      ],
      [
        "Ġp",
        "lease"
      ],
      [
        "Ġth",
        "ink"
      ],
      [
        "Ġclimb",
        "ed"
      ],
      [
        "Ġcook",
        "ies"
      ],
      [
        "âĢ",
        "ľ"
      ],
      [
        "Ġd",
        "ark"
      ],
      [
        "er",
        "ed"
      ],
      [
        "w",
        "here"
      ],
      [
        "Ġs",
        "ong"
      ],
      [
        "ĠF",
        "in"
      ],
      [
        "Ġdad",
        "dy"
      ],
      [
        "Ġacc",
        "ident"
      ],
      [
        "h",
        "n"
      ],
      [
        "Ġsh",
        "o"
      ],
      [
        "M",
        "ax"
      ],
      [
        "or",
        "n"
      ],
      [
        "âĢ",
        "Ŀ"
      ],
      [
        "Ġd",
        "r"
      ],
      [
        "Ġrun",
        "ning"
      ],
      [
        "Ġtal",
        "k"
      ],
      [
        "Ġag",
        "reed"
      ],
      [
        "Ġcu",
        "ri"
      ],
      [
        "Ġgra",
        "ss"
      ],
      [
        "Ġblock",
        "s"
      ],
      [
        "w",
        "eet"
      ],
      [
        "Ġexpl",
        "ore"
      ],
      [
        "Ġbu",
        "ild"
      ],
      [
        "Ġown",
        "er"
      ],
      [
        "Ġsh",
        "ared"
      ],
      [
        "Ġp",
        "er"
      ],
      [
        "Ġth",
        "ing"
      ],
      [
        "Ġr",
        "u"
      ],
      [
        "i",
        "ke"
      ],
      [
        "Ġhelp",
        "ing"
      ],
      [
        "Ġcuri",
        "ous"
      ],
      [
        "Ġhun",
        "gry"
      ],
      [
        "Ġdin",
        "ner"
      ],
      [
        "Ġflo",
        "or"
      ],
      [
        "Ġmo",
        "ve"
      ],
      [
        "The",
        "n"
      ],
      [
        "p",
        "e"
      ],
      [
        "ĠK",
        "itty"
      ],
      [
        "c",
        "ed"
      ],
      [
        "ou",
        "p"
      ],
      [
        "Ġta",
        "ble"
      ],
      [
        "Ġsurpr",
        "ise"
      ],
      [
        "Ġst",
        "op"
      ],
      [
        "Ġunder",
        "st"
      ],
      [
        "Ġquick",
        "ly"
      ],
      [
        "b",
        "o"
      ],
      [
        "Ġfa",
        "ir"
      ],
      [
        "ĠMom",
        "my"
      ],
      [
        "Ġlist",
        "ened"
      ],
      [
        "Ġan",
        "other"
      ],
      [
        "ll",
        "y"
      ],
      [
        "Ġfriend",
        "ly"
      ],
      [
        "ĠN",
        "ow"
      ],
      [
        "Ġwr",
        "ong"
      ],
      [
        "Ġcom",
        "ing"
      ],
      [
        "Ġclos",
        "er"
      ],
      [
        "Ġball",
        "oon"
      ],
      [
        "Ġbeh",
        "ind"
      ],
      [
        "Ġt",
        "eddy"
      ],
      [
        "Ġdre",
        "am"
      ],
      [
        "Ġbro",
        "ke"
      ],
      [
        "Ġd",
        "ri"
      ],
      [
        "Ġsw",
        "ing"
      ],
      [
        "ig",
        "n"
      ],
      [
        "Ġre",
        "ady"
      ],
      [
        "Ġmu",
        "s"
      ],
      [
        "Ġpret",
        "end"
      ],
      [
        "Ġleave",
        "s"
      ],
      [
        "Ġbr",
        "ought"
      ],
      [
        "Ġm",
        "ight"
      ],
      [
        "Ġp",
        "ap"
      ],
      [
        "nt",
        "s"
      ],
      [
        "Ġforg",
        "ot"
      ],
      [
        "Ġhe",
        "re"
      ],
      [
        "Ġle",
        "ft"
      ],
      [
        "Ġdan",
        "ce"
      ],
      [
        "Ġsh",
        "ar"
      ],
      [
        "Ġb",
        "ar"
      ],
      [
        "Ġbri",
        "ght"
      ],
      [
        "L",
        "ater"
      ],
      [
        "itt",
        "ens"
      ],
      [
        "A",
        "t"
      ],
      [
        "Ġh",
        "ill"
      ],
      [
        "Ġher",
        "self"
      ],
      [
        "Ġlear",
        "n"
      ],
      [
        "ke",
        "y"
      ],
      [
        "at",
        "her"
      ],
      [
        "ce",
        "ss"
      ],
      [
        "as",
        "ure"
      ],
      [
        "g",
        "g"
      ],
      [
        "Ġ",
        "owl"
      ],
      [
        "Ġprom",
        "ised"
      ],
      [
        "Ġaccident",
        "ally"
      ],
      [
        "o",
        "ice"
      ],
      [
        "Ġhim",
        "self"
      ],
      [
        "uck",
        "y"
      ],
      [
        "Ġtry",
        "ing"
      ],
      [
        "by",
        "e"
      ],
      [
        "s",
        "y"
      ],
      [
        "Ġdo",
        "ing"
      ],
      [
        "ĠTh",
        "is"
      ],
      [
        "ĠT",
        "weet"
      ],
      [
        "o",
        "s"
      ],
      [
        "Ġw",
        "ood"
      ],
      [
        "Ġh",
        "ide"
      ],
      [
        "Ġsm",
        "ell"
      ],
      [
        "S",
        "o"
      ],
      [
        "Ġha",
        "ir"
      ],
      [
        "Ġcl",
        "a"
      ],
      [
        "Ġthr",
        "ough"
      ],
      [
        "bb",
        "ed"
      ],
      [
        "r",
        "ow"
      ],
      [
        "Ġfly",
        "ing"
      ],
      [
        "Ġv",
        "is"
      ],
      [
        "Ġto",
        "uch"
      ],
      [
        "Ġg",
        "one"
      ],
      [
        "Ġst",
        "uck"
      ],
      [
        "Ġ",
        "âĢľ"
      ],
      [
        "Ġr",
        "ide"
      ],
      [
        "Wh",
        "y"
      ],
      [
        "Ġw",
        "et"
      ],
      [
        "Ġy",
        "ard"
      ],
      [
        "ĠA",
        "fter"
      ],
      [
        "Ġsh",
        "out"
      ],
      [
        "Ġsun",
        "ny"
      ],
      [
        "Ġf",
        "ull"
      ],
      [
        "Ġha",
        "s"
      ],
      [
        "Ġl",
        "ight"
      ],
      [
        "Ġne",
        "st"
      ],
      [
        "Ġfr",
        "uit"
      ],
      [
        "Ġst",
        "e"
      ],
      [
        "st",
        "le"
      ],
      [
        "Ġho",
        "ld"
      ],
      [
        "Ġgr",
        "ate"
      ],
      [
        "o",
        "om"
      ],
      [
        "ard",
        "s"
      ],
      [
        "Ġwh",
        "y"
      ],
      [
        "Ġcolor",
        "s"
      ],
      [
        "i",
        "x"
      ],
      [
        "Ġyell",
        "ow"
      ],
      [
        "a",
        "c"
      ],
      [
        "Ġta",
        "il"
      ],
      [
        "Ġgrate",
        "ful"
      ],
      [
        "Ġany",
        "thing"
      ],
      [
        "a",
        "ched"
      ],
      [
        "Ġfin",
        "ished"
      ],
      [
        "Ġdel",
        "ic"
      ],
      [
        "Ġf",
        "all"
      ],
      [
        "Ġclo",
        "se"
      ],
      [
        "Ġper",
        "f"
      ],
      [
        "Ġpicture",
        "s"
      ],
      [
        "Ġt",
        "ight"
      ],
      [
        "ic",
        "y"
      ],
      [
        "Ġeat",
        "ing"
      ],
      [
        "Ġl",
        "ess"
      ],
      [
        "O",
        "h"
      ],
      [
        "is",
        "y"
      ],
      [
        "Ġwo",
        "nder"
      ],
      [
        "Ġmus",
        "ic"
      ],
      [
        "at",
        "ion"
      ],
      [
        "Ġgl",
        "ad"
      ],
      [
        "Ġtra",
        "in"
      ],
      [
        "Ġpl",
        "an"
      ],
      [
        "Ġpu",
        "ppy"
      ],
      [
        "Ġpap",
        "er"
      ],
      [
        "Ġtre",
        "at"
      ],
      [
        "as",
        "k"
      ],
      [
        "Ġwor",
        "ld"
      ],
      [
        "Ġbre",
        "ak"
      ],
      [
        "s",
        "et"
      ],
      [
        "Ġdir",
        "ty"
      ],
      [
        "Ġc",
        "ra"
      ],
      [
        "ĠTh",
        "at"
      ],
      [
        "d",
        "er"
      ],
      [
        "Ġon",
        "ly"
      ],
      [
        "Ġre",
        "ally"
      ],
      [
        "Ġcand",
        "y"
      ],
      [
        "Ġgood",
        "bye"
      ],
      [
        "ie",
        "ld"
      ],
      [
        "r",
        "ot"
      ],
      [
        "Ġw",
        "ished"
      ],
      [
        "O",
        "kay"
      ],
      [
        "Ġsome",
        "one"
      ],
      [
        "Ġbe",
        "gan"
      ],
      [
        "Ġbe",
        "en"
      ],
      [
        "Ġs",
        "it"
      ],
      [
        "Ġ",
        "ve"
      ],
      [
        "Ġw",
        "in"
      ],
      [
        "a",
        "v"
      ],
      [
        "c",
        "o"
      ],
      [
        "Ġsw",
        "am"
      ],
      [
        "Ġapp",
        "le"
      ],
      [
        "Ġm",
        "ar"
      ],
      [
        "Ġwind",
        "ow"
      ],
      [
        "a",
        "f"
      ],
      [
        "Ġp",
        "ink"
      ],
      [
        "ra",
        "g"
      ],
      [
        "ot",
        "t"
      ],
      [
        "Ġe",
        "le"
      ],
      [
        "Ġcolor",
        "ful"
      ],
      [
        "Ġse",
        "en"
      ],
      [
        "Ġvis",
        "it"
      ],
      [
        "ss",
        "ed"
      ],
      [
        "Ġv",
        "oice"
      ],
      [
        "Ġp",
        "ro"
      ],
      [
        "Ġla",
        "nd"
      ],
      [
        "i",
        "ch"
      ],
      [
        "r",
        "ed"
      ],
      [
        "Ġgr",
        "ow"
      ],
      [
        "Ġevery",
        "where"
      ],
      [
        "Ġdo",
        "es"
      ],
      [
        "Ġm",
        "at"
      ],
      [
        "Ġsl",
        "ow"
      ],
      [
        "Ġw",
        "on"
      ],
      [
        "z",
        "z"
      ],
      [
        "Ġp",
        "are"
      ],
      [
        "Ġth",
        "re"
      ],
      [
        "Ġre",
        "ached"
      ],
      [
        "Ġmom",
        "ent"
      ],
      [
        "Ġwa",
        "ited"
      ],
      [
        "Ġm",
        "ix"
      ],
      [
        "Ġsn",
        "ow"
      ],
      [
        "Ġn",
        "ap"
      ],
      [
        "ot",
        "hes"
      ],
      [
        "Ġcl",
        "othes"
      ],
      [
        "ain",
        "ed"
      ],
      [
        "ĠD",
        "ad"
      ],
      [
        "Ġnam",
        "e"
      ],
      [
        "Ġd",
        "one"
      ],
      [
        "ĠSara",
        "h"
      ],
      [
        "Ġcry",
        "ing"
      ],
      [
        "S",
        "he"
      ],
      [
        "ro",
        "om"
      ],
      [
        "Ġy",
        "es"
      ],
      [
        "Ġmon",
        "key"
      ],
      [
        "Ġe",
        "ar"
      ],
      [
        "Ġ",
        "O"
      ],
      [
        "ĠM",
        "ittens"
      ],
      [
        "Ġp",
        "at"
      ],
      [
        "Ġs",
        "et"
      ],
      [
        "Ġc",
        "ount"
      ],
      [
        "Ġtow",
        "er"
      ],
      [
        "Ġhe",
        "ld"
      ],
      [
        "Ġca",
        "stle"
      ],
      [
        "'",
        "ll"
      ],
      [
        "th",
        "y"
      ],
      [
        "Ġless",
        "on"
      ],
      [
        "ow",
        "er"
      ],
      [
        "Ġth",
        "ank"
      ],
      [
        "Ġa",
        "ir"
      ],
      [
        "Ġpo",
        "l"
      ],
      [
        "ct",
        "or"
      ],
      [
        "Ġbe",
        "ach"
      ],
      [
        "Ġw",
        "ise"
      ],
      [
        "Ġup",
        "set"
      ],
      [
        "Ġal",
        "one"
      ],
      [
        "Ġhapp",
        "en"
      ],
      [
        "Ġho",
        "pped"
      ],
      [
        "Ġcom",
        "p"
      ],
      [
        "Ġb",
        "it"
      ],
      [
        "ill",
        "ed"
      ],
      [
        "Ġbr",
        "an"
      ],
      [
        "z",
        "e"
      ],
      [
        "Ġevery",
        "thing"
      ],
      [
        "Ġlaug",
        "h"
      ],
      [
        "av",
        "y"
      ],
      [
        "Ġf",
        "ight"
      ],
      [
        "Ġsa",
        "il"
      ],
      [
        "Ġse",
        "ar"
      ],
      [
        "Ġpu",
        "s"
      ],
      [
        "Ġb",
        "ott"
      ],
      [
        "g",
        "le"
      ],
      [
        "on",
        "s"
      ],
      [
        "Ġj",
        "u"
      ],
      [
        "Ġch",
        "ild"
      ],
      [
        "Ġfin",
        "ally"
      ],
      [
        "ri",
        "es"
      ],
      [
        "Ġp",
        "re"
      ],
      [
        "Ġre",
        "ach"
      ],
      [
        "Ġfo",
        "x"
      ],
      [
        "Ġtre",
        "asure"
      ],
      [
        "Ġp",
        "ot"
      ],
      [
        "S",
        "ure"
      ],
      [
        "or",
        "m"
      ],
      [
        "Ġdan",
        "ger"
      ],
      [
        "Ġfollow",
        "ed"
      ],
      [
        "Ġg",
        "ent"
      ],
      [
        "Ġj",
        "e"
      ],
      [
        "ĠEvery",
        "one"
      ],
      [
        "Ġpare",
        "nts"
      ],
      [
        "Ġa",
        "rm"
      ],
      [
        "Ġenjoy",
        "ed"
      ],
      [
        "Ġwas",
        "n"
      ],
      [
        "Ġbook",
        "s"
      ],
      [
        "ar",
        "t"
      ],
      [
        "Ġwo",
        "ke"
      ],
      [
        "Ġpain",
        "t"
      ],
      [
        "an",
        "ce"
      ],
      [
        "Ġgra",
        "bbed"
      ],
      [
        "Ġcu",
        "p"
      ],
      [
        "Ġb",
        "ike"
      ],
      [
        "Ġm",
        "oney"
      ],
      [
        "Ġunderst",
        "and"
      ],
      [
        "is",
        "ter"
      ],
      [
        "ĠJo",
        "hn"
      ],
      [
        "Ġar",
        "ri"
      ],
      [
        "in",
        "s"
      ],
      [
        "Ġj",
        "ob"
      ],
      [
        "st",
        "e"
      ],
      [
        "Ġre",
        "s"
      ],
      [
        "Ġget",
        "ting"
      ],
      [
        "Ġtow",
        "ards"
      ],
      [
        "Ġb",
        "ite"
      ],
      [
        "Ġh",
        "it"
      ],
      [
        "Ġwa",
        "g"
      ],
      [
        "Ġs",
        "ister"
      ],
      [
        "Ġsp",
        "ot"
      ],
      [
        "Ġmon",
        "ster"
      ],
      [
        "âĢ",
        "Ļ"
      ],
      [
        "Ġ",
        "que"
      ],
      [
        "Ġcar",
        "rot"
      ],
      [
        "Th",
        "is"
      ],
      [
        "a",
        "st"
      ],
      [
        "Ġdelic",
        "ious"
      ],
      [
        "am",
        "es"
      ],
      [
        "Ġwood",
        "s"
      ],
      [
        "ste",
        "ad"
      ],
      [
        "Ġs",
        "oup"
      ],
      [
        "Ġf",
        "ree"
      ],
      [
        "as",
        "h"
      ],
      [
        "A",
        "nna"
      ],
      [
        "Ġbig",
        "ger"
      ],
      [
        "Ġpl",
        "ant"
      ],
      [
        "Ġshout",
        "ed"
      ],
      [
        "le",
        "ss"
      ],
      [
        "d",
        "e"
      ],
      [
        "ph",
        "ant"
      ],
      [
        "o",
        "c"
      ],
      [
        "Ġwor",
        "d"
      ],
      [
        "Ġri",
        "ver"
      ],
      [
        "re",
        "am"
      ],
      [
        "Ġca",
        "ught"
      ],
      [
        "Ġpiece",
        "s"
      ],
      [
        "m",
        "an"
      ],
      [
        "Ġsp",
        "l"
      ],
      [
        "S",
        "am"
      ],
      [
        "Ġwith",
        "out"
      ],
      [
        "Ġb",
        "or"
      ],
      [
        "D",
        "o"
      ],
      [
        "Ġsn",
        "ack"
      ],
      [
        "Ġjo",
        "in"
      ],
      [
        "b",
        "or"
      ],
      [
        "Ġp",
        "en"
      ],
      [
        "Ġmu",
        "st"
      ],
      [
        "u",
        "b"
      ],
      [
        "Ġhe",
        "avy"
      ],
      [
        "Ġsw",
        "ings"
      ],
      [
        "Ġsand",
        "w"
      ],
      [
        "S",
        "ue"
      ],
      [
        "Ġpu",
        "lled"
      ],
      [
        "m",
        "b"
      ],
      [
        "H",
        "is"
      ],
      [
        "Ġch",
        "air"
      ],
      [
        "Ġarri",
        "ved"
      ],
      [
        "Ġexpl",
        "ained"
      ],
      [
        "ll",
        "ie"
      ],
      [
        "Ġre",
        "l"
      ],
      [
        "Ġele",
        "phant"
      ],
      [
        "Ġb",
        "owl"
      ],
      [
        "Ġp",
        "et"
      ],
      [
        "c",
        "y"
      ],
      [
        "u",
        "p"
      ],
      [
        "Ġm",
        "other"
      ],
      [
        "ve",
        "s"
      ],
      [
        "Ġlook",
        "s"
      ],
      [
        "Ġb",
        "lew"
      ],
      [
        "Ġke",
        "y"
      ],
      [
        "Ġen",
        "ough"
      ],
      [
        "a",
        "ught"
      ],
      [
        "ĠA",
        "ll"
      ],
      [
        "Ġde",
        "ep"
      ],
      [
        "e",
        "re"
      ],
      [
        "out",
        "h"
      ],
      [
        "Ġm",
        "outh"
      ],
      [
        "Ġba",
        "by"
      ],
      [
        "a",
        "isy"
      ],
      [
        "Ġd",
        "ry"
      ],
      [
        "Ġg",
        "ames"
      ],
      [
        "Ġwor",
        "ried"
      ],
      [
        "Ġf",
        "ur"
      ],
      [
        "Ġdanger",
        "ous"
      ],
      [
        "Ġe",
        "s"
      ],
      [
        "e",
        "y"
      ],
      [
        "Ġa",
        "nt"
      ],
      [
        "Ġp",
        "ack"
      ],
      [
        "Ġg",
        "if"
      ],
      [
        "Ġperf",
        "ect"
      ],
      [
        "I",
        "n"
      ],
      [
        "c",
        "le"
      ],
      [
        "itt",
        "ing"
      ],
      [
        "ull",
        "y"
      ],
      [
        "Ġt",
        "iny"
      ],
      [
        "un",
        "ch"
      ],
      [
        "al",
        "thy"
      ],
      [
        "Ġfarm",
        "er"
      ],
      [
        "Ġb",
        "ath"
      ],
      [
        "ĠThe",
        "re"
      ],
      [
        "Ġth",
        "ree"
      ],
      [
        "ĠTom",
        "my"
      ],
      [
        "Ġdo",
        "ctor"
      ],
      [
        "Ġstay",
        "ed"
      ],
      [
        "le",
        "t"
      ],
      [
        "Ġbel",
        "ong"
      ],
      [
        "f",
        "ully"
      ],
      [
        "S",
        "ara"
      ],
      [
        "Ġbl",
        "ank"
      ],
      [
        "Ġprin",
        "cess"
      ],
      [
        "Ġne",
        "igh"
      ],
      [
        "ĠJ",
        "ane"
      ],
      [
        "Ġf",
        "ield"
      ],
      [
        "Ġblank",
        "et"
      ],
      [
        "i",
        "et"
      ],
      [
        "Ġshar",
        "ing"
      ],
      [
        "at",
        "ed"
      ],
      [
        "am",
        "p"
      ],
      [
        "Ġpus",
        "hed"
      ],
      [
        "Ġe",
        "l"
      ],
      [
        "ĠWh",
        "at"
      ],
      [
        "f",
        "ort"
      ],
      [
        "Ġfair",
        "y"
      ],
      [
        "Ġcl",
        "oud"
      ],
      [
        "Ġqu",
        "iet"
      ],
      [
        "Ġel",
        "se"
      ],
      [
        "e",
        "ared"
      ],
      [
        "l",
        "ue"
      ],
      [
        "Ġwa",
        "ll"
      ],
      [
        "o",
        "g"
      ],
      [
        "e",
        "k"
      ],
      [
        "ock",
        "ed"
      ],
      [
        "m",
        "ing"
      ],
      [
        "Ġle",
        "g"
      ],
      [
        "Ġto",
        "m"
      ],
      [
        "Ġj",
        "ar"
      ],
      [
        "i",
        "ver"
      ],
      [
        "Ġwould",
        "n"
      ],
      [
        "ĠBob",
        "o"
      ],
      [
        "ck",
        "et"
      ],
      [
        "Ġl",
        "ate"
      ],
      [
        "i",
        "er"
      ],
      [
        "Ġp",
        "ig"
      ],
      [
        "pp",
        "ing"
      ],
      [
        "Ġwh",
        "ite"
      ],
      [
        "Ġs",
        "illy"
      ],
      [
        "ĠE",
        "m"
      ],
      [
        "Ġclo",
        "sed"
      ],
      [
        "Ġthre",
        "w"
      ],
      [
        "m",
        "e"
      ],
      [
        "is",
        "s"
      ],
      [
        "en",
        "ce"
      ],
      [
        "ou",
        "n"
      ],
      [
        "Ġbl",
        "ack"
      ],
      [
        "Ġsn",
        "ake"
      ],
      [
        "Ġwa",
        "ved"
      ],
      [
        "Ġstor",
        "m"
      ],
      [
        "Ġneigh",
        "bor"
      ],
      [
        "i",
        "re"
      ],
      [
        "Ġs",
        "itting"
      ],
      [
        "Ġpo",
        "in"
      ],
      [
        "Ġs",
        "ide"
      ],
      [
        "Ġse",
        "a"
      ],
      [
        "Ġg",
        "u"
      ],
      [
        "Ġamaz",
        "ed"
      ],
      [
        "Ġbe",
        "e"
      ],
      [
        "itt",
        "en"
      ],
      [
        "ĠSam",
        "my"
      ],
      [
        "J",
        "ust"
      ],
      [
        "Ġse",
        "es"
      ],
      [
        "Ġat",
        "t"
      ],
      [
        "Ġbr",
        "ing"
      ],
      [
        "Ġdr",
        "ink"
      ],
      [
        "Ġbott",
        "le"
      ],
      [
        "Ġdro",
        "pped"
      ],
      [
        "o",
        "lly"
      ],
      [
        "Ġe",
        "gg"
      ],
      [
        "Ġd",
        "rag"
      ],
      [
        "Ġne",
        "ck"
      ],
      [
        "Ġcare",
        "fully"
      ],
      [
        "Ġadventure",
        "s"
      ],
      [
        "Ġwe",
        "ll"
      ],
      [
        "Ġcra",
        "b"
      ],
      [
        "Ġc",
        "our"
      ],
      [
        "ck",
        "ed"
      ],
      [
        "Ġsm",
        "art"
      ],
      [
        "Ġfe",
        "w"
      ],
      [
        "c",
        "ome"
      ],
      [
        "ĠB",
        "lue"
      ],
      [
        "ch",
        "ool"
      ],
      [
        "Ġdan",
        "ced"
      ],
      [
        "Ġbran",
        "ch"
      ],
      [
        "Ġsho",
        "es"
      ],
      [
        "M",
        "ia"
      ],
      [
        "Ġamaz",
        "ing"
      ],
      [
        "or",
        "d"
      ],
      [
        "Ġb",
        "ask"
      ],
      [
        "Ġbask",
        "et"
      ],
      [
        "y",
        "ard"
      ],
      [
        "bo",
        "ard"
      ],
      [
        "r",
        "ay"
      ],
      [
        "Ġback",
        "yard"
      ],
      [
        "ve",
        "l"
      ],
      [
        "udd",
        "y"
      ],
      [
        "Ġma",
        "il"
      ],
      [
        "Ġcla",
        "pped"
      ],
      [
        "Ġcour",
        "se"
      ],
      [
        "Ġs",
        "chool"
      ],
      [
        "Ġto",
        "day"
      ],
      [
        "Ġg",
        "i"
      ],
      [
        "Ġmor",
        "ning"
      ],
      [
        "Ġbel",
        "ie"
      ],
      [
        "Ġa",
        "ble"
      ],
      [
        "Ġle",
        "af"
      ],
      [
        "Ġcre",
        "at"
      ],
      [
        "Ġs",
        "ec"
      ],
      [
        "Ġcut",
        "e"
      ],
      [
        "Ġs",
        "ick"
      ],
      [
        "Ġsh",
        "ap"
      ],
      [
        "Ġmis",
        "s"
      ],
      [
        "Ġturn",
        "s"
      ],
      [
        "s",
        "w"
      ],
      [
        "Ġl",
        "unch"
      ],
      [
        "Ġan",
        "sw"
      ],
      [
        "u",
        "sed"
      ],
      [
        "Ġth",
        "ough"
      ],
      [
        "Ġdoll",
        "s"
      ],
      [
        "f",
        "ish"
      ],
      [
        "Ġs",
        "ug"
      ],
      [
        "ra",
        "ct"
      ],
      [
        "Ġw",
        "ish"
      ],
      [
        "Ġapp",
        "les"
      ],
      [
        "Ġcr",
        "ay"
      ],
      [
        "as",
        "ed"
      ],
      [
        "Ġf",
        "an"
      ],
      [
        "Ġp",
        "urp"
      ],
      [
        "Ġy",
        "ear"
      ],
      [
        "ro",
        "ss"
      ],
      [
        "Ġtal",
        "ked"
      ],
      [
        "Ġb",
        "at"
      ],
      [
        "re",
        "n"
      ],
      [
        "se",
        "s"
      ],
      [
        "Ġp",
        "h"
      ],
      [
        "Ġwe",
        "l"
      ],
      [
        "a",
        "ur"
      ],
      [
        "i",
        "ble"
      ],
      [
        "o",
        "se"
      ],
      [
        "ble",
        "m"
      ],
      [
        "Ġor",
        "ange"
      ],
      [
        "Ġfix",
        "ed"
      ],
      [
        "Ġpro",
        "blem"
      ],
      [
        "at",
        "or"
      ],
      [
        "Ġpurp",
        "le"
      ],
      [
        "Ġin",
        "stead"
      ],
      [
        "Ġta",
        "king"
      ],
      [
        "l",
        "ing"
      ],
      [
        "Ġw",
        "ore"
      ],
      [
        "Ġsa",
        "me"
      ],
      [
        "ĠFin",
        "ally"
      ],
      [
        "Ġl",
        "etter"
      ],
      [
        "ount",
        "ain"
      ],
      [
        "Ġst",
        "re"
      ],
      [
        "Ġhear",
        "t"
      ],
      [
        "i",
        "pped"
      ],
      [
        "Ġw",
        "he"
      ],
      [
        "Ġb",
        "ought"
      ],
      [
        "Ġgif",
        "t"
      ],
      [
        "e",
        "ver"
      ],
      [
        "Ġp",
        "udd"
      ],
      [
        "is",
        "k"
      ],
      [
        "Ġs",
        "uch"
      ],
      [
        "Ġlike",
        "s"
      ],
      [
        "Wh",
        "ile"
      ],
      [
        "Ġrock",
        "s"
      ],
      [
        "Ġs",
        "ign"
      ],
      [
        "Ġw",
        "ings"
      ],
      [
        "Ġwa",
        "r"
      ],
      [
        "Ġr",
        "ound"
      ],
      [
        "Ġor",
        "gan"
      ],
      [
        "Ġpat",
        "ient"
      ],
      [
        "Ġsear",
        "ched"
      ],
      [
        "Ġs",
        "uddenly"
      ],
      [
        "Ġsp",
        "id"
      ],
      [
        "ĠB",
        "uddy"
      ],
      [
        "Ġk",
        "ing"
      ],
      [
        "Ġchild",
        "ren"
      ],
      [
        "i",
        "an"
      ],
      [
        "a",
        "pp"
      ],
      [
        "Ġsh",
        "in"
      ],
      [
        "Ġsm",
        "o"
      ],
      [
        "ĠD",
        "aisy"
      ],
      [
        "Ġstr",
        "ange"
      ],
      [
        "Ġdrag",
        "on"
      ],
      [
        "Ġb",
        "ow"
      ],
      [
        "Ġsa",
        "ng"
      ],
      [
        "b",
        "r"
      ],
      [
        "Ġb",
        "and"
      ],
      [
        "ĠT",
        "o"
      ],
      [
        "Ġhelp",
        "ful"
      ],
      [
        "Ġfast",
        "er"
      ],
      [
        "J",
        "o"
      ],
      [
        "Ġsa",
        "ck"
      ],
      [
        "Ġmu",
        "d"
      ],
      [
        "Ġh",
        "ar"
      ],
      [
        "Ġf",
        "illed"
      ],
      [
        "Ġword",
        "s"
      ],
      [
        "Ġsandw",
        "ich"
      ],
      [
        "F",
        "in"
      ],
      [
        "Ġh",
        "ig"
      ],
      [
        "Ġst",
        "and"
      ],
      [
        "Ġmake",
        "s"
      ],
      [
        "Ġbar",
        "ked"
      ],
      [
        "\"",
        "."
      ],
      [
        "O",
        "f"
      ],
      [
        "n",
        "ic"
      ],
      [
        "Ġco",
        "zy"
      ],
      [
        "Ġpa",
        "w"
      ],
      [
        "Ġh",
        "or"
      ],
      [
        "f",
        "used"
      ],
      [
        "Ġm",
        "in"
      ],
      [
        "Ġcar",
        "ry"
      ],
      [
        "Ġpic",
        "nic"
      ],
      [
        "u",
        "nt"
      ],
      [
        "Ġc",
        "ow"
      ],
      [
        "Ġro",
        "ad"
      ],
      [
        "s",
        "p"
      ],
      [
        "Ġl",
        "one"
      ],
      [
        "Ġmis",
        "sed"
      ],
      [
        "Ġlone",
        "ly"
      ],
      [
        "b",
        "all"
      ],
      [
        "e",
        "se"
      ],
      [
        "Ġbr",
        "own"
      ],
      [
        "ir",
        "t"
      ],
      [
        "Ġsee",
        "m"
      ],
      [
        "Ġb",
        "oun"
      ],
      [
        "Ġtr",
        "ou"
      ],
      [
        "Ġk",
        "ick"
      ],
      [
        "ble",
        "s"
      ],
      [
        "Ġdis",
        "app"
      ],
      [
        "Ġp",
        "op"
      ],
      [
        "Ġo",
        "ven"
      ],
      [
        "Ġte",
        "ac"
      ],
      [
        "Ġb",
        "uck"
      ],
      [
        "Ġf",
        "it"
      ],
      [
        "Ġwo",
        "lf"
      ],
      [
        "Ġst",
        "u"
      ],
      [
        "Ġpa",
        "st"
      ],
      [
        "Ġhid",
        "ing"
      ],
      [
        "S",
        "pot"
      ],
      [
        "a",
        "il"
      ],
      [
        "Ġp",
        "ower"
      ],
      [
        "Ġbut",
        "t"
      ],
      [
        "Ġco",
        "at"
      ],
      [
        "Ġb",
        "en"
      ],
      [
        "ĠM",
        "aybe"
      ],
      [
        "Ġju",
        "ice"
      ],
      [
        "Ġc",
        "raw"
      ],
      [
        "il",
        "a"
      ],
      [
        "Ġj",
        "un"
      ],
      [
        "Ġfore",
        "ver"
      ],
      [
        "Ġbelie",
        "ve"
      ],
      [
        "Ġsec",
        "ret"
      ],
      [
        "isk",
        "ers"
      ],
      [
        "at",
        "o"
      ],
      [
        "Ġbu",
        "s"
      ],
      [
        "Ġwel",
        "come"
      ],
      [
        "ump",
        "y"
      ],
      [
        "Ġpu",
        "ll"
      ],
      [
        "Ġm",
        "il"
      ],
      [
        "Ġro",
        "lled"
      ],
      [
        "L",
        "ucy"
      ],
      [
        "iz",
        "e"
      ],
      [
        "Ġsing",
        "ing"
      ],
      [
        "Ġhig",
        "her"
      ],
      [
        "c",
        "er"
      ],
      [
        "t",
        "o"
      ],
      [
        "Ġteac",
        "her"
      ],
      [
        "ĠA",
        "t"
      ],
      [
        "Ġw",
        "ra"
      ],
      [
        "e",
        "e"
      ],
      [
        "Ġd",
        "ist"
      ],
      [
        "Ġp",
        "ers"
      ],
      [
        "id",
        "ge"
      ],
      [
        "pp",
        "er"
      ],
      [
        "B",
        "ob"
      ],
      [
        "in",
        "ed"
      ],
      [
        "Ġwant",
        "s"
      ],
      [
        "Ġm",
        "ist"
      ],
      [
        "Ġno",
        "se"
      ],
      [
        "Ġpo",
        "cket"
      ],
      [
        "Ġche",
        "ese"
      ],
      [
        "Ġapp",
        "eared"
      ],
      [
        "Ġtri",
        "p"
      ],
      [
        "Ġo",
        "b"
      ],
      [
        "ĠIn",
        "side"
      ],
      [
        "Ġh",
        "oney"
      ],
      [
        "Ġcol",
        "le"
      ],
      [
        "Ġday",
        "s"
      ],
      [
        "Ġben",
        "ch"
      ],
      [
        "ir",
        "th"
      ],
      [
        "Ġsh",
        "y"
      ],
      [
        "Ġmess",
        "y"
      ],
      [
        "Ġmil",
        "k"
      ],
      [
        "irth",
        "day"
      ],
      [
        "Ġa",
        "f"
      ],
      [
        "Ġdri",
        "ver"
      ],
      [
        "Ġtreat",
        "s"
      ],
      [
        "Ġkn",
        "ocked"
      ],
      [
        "Ġtast",
        "y"
      ],
      [
        "ĠC",
        "h"
      ],
      [
        "Ġwag",
        "ged"
      ],
      [
        "Ġstre",
        "et"
      ],
      [
        "Ġspid",
        "er"
      ],
      [
        "Ġc",
        "ou"
      ],
      [
        "Ġwatch",
        "ing"
      ],
      [
        "ĠG",
        "ra"
      ],
      [
        "ĠT",
        "eddy"
      ],
      [
        "er",
        "ry"
      ],
      [
        "Ġr",
        "ad"
      ],
      [
        "Ġin",
        "c"
      ],
      [
        "Ġm",
        "ed"
      ],
      [
        "Ġn",
        "et"
      ],
      [
        "Ġv",
        "al"
      ],
      [
        "ĠD",
        "ucky"
      ],
      [
        "em",
        "o"
      ],
      [
        "Ġcook",
        "ie"
      ],
      [
        "Ġthr",
        "ow"
      ],
      [
        "M",
        "aybe"
      ],
      [
        "Ġw",
        "ide"
      ],
      [
        "Ġco",
        "ver"
      ],
      [
        "Ġb",
        "ur"
      ],
      [
        "Ġv",
        "ill"
      ],
      [
        "Ġshin",
        "ing"
      ],
      [
        "k",
        "in"
      ],
      [
        "Ġd",
        "es"
      ],
      [
        "c",
        "ing"
      ],
      [
        "Ġm",
        "ark"
      ],
      [
        "ĠB",
        "r"
      ],
      [
        "Ġle",
        "m"
      ],
      [
        "ell",
        "y"
      ],
      [
        "Ġte",
        "ach"
      ],
      [
        "ig",
        "g"
      ],
      [
        "Ġro",
        "ll"
      ],
      [
        "Ġfo",
        "ld"
      ],
      [
        "Ġdro",
        "ve"
      ],
      [
        "an",
        "g"
      ],
      [
        "Ġse",
        "ed"
      ],
      [
        "Ġpu",
        "zz"
      ],
      [
        "Ġtast",
        "e"
      ],
      [
        "Ġa",
        "ct"
      ],
      [
        "Ġyou",
        "ng"
      ],
      [
        "Ġsp",
        "o"
      ],
      [
        "l",
        "a"
      ],
      [
        "ce",
        "an"
      ],
      [
        "Ġo",
        "cean"
      ],
      [
        "Ġe",
        "as"
      ],
      [
        "Ġlong",
        "er"
      ],
      [
        "ĠJ",
        "ust"
      ],
      [
        "Ġtal",
        "king"
      ],
      [
        "Ġpar",
        "t"
      ],
      [
        "Ġb",
        "irthday"
      ],
      [
        "Ġk",
        "itten"
      ],
      [
        "Ġland",
        "ed"
      ],
      [
        "a",
        "le"
      ],
      [
        "Ġm",
        "ad"
      ],
      [
        "Ġm",
        "ine"
      ],
      [
        "Ġli",
        "fe"
      ],
      [
        "Ġsh",
        "op"
      ],
      [
        "Ġsp",
        "ark"
      ],
      [
        "Ġdir",
        "t"
      ],
      [
        "is",
        "es"
      ],
      [
        "Ġfo",
        "ot"
      ],
      [
        "ĠTweet",
        "y"
      ],
      [
        "fort",
        "able"
      ],
      [
        "Fin",
        "ally"
      ],
      [
        "ra",
        "id"
      ],
      [
        "Ġlaug",
        "hing"
      ],
      [
        "d",
        "en"
      ],
      [
        "u",
        "ally"
      ],
      [
        "Ġj",
        "elly"
      ],
      [
        "ĠWh",
        "iskers"
      ],
      [
        "Ġaf",
        "raid"
      ],
      [
        "c",
        "hes"
      ],
      [
        "un",
        "a"
      ],
      [
        "um",
        "b"
      ],
      [
        "Ġmagic",
        "al"
      ],
      [
        "Ġpudd",
        "le"
      ],
      [
        "al",
        "m"
      ],
      [
        "Ġas",
        "leep"
      ],
      [
        "Ġsee",
        "k"
      ],
      [
        "Ġsh",
        "ip"
      ],
      [
        "Ġro",
        "b"
      ],
      [
        "iz",
        "z"
      ],
      [
        "a",
        "ss"
      ],
      [
        "Ġin",
        "v"
      ],
      [
        "ol",
        "ate"
      ],
      [
        "Ġhid",
        "den"
      ],
      [
        "oc",
        "olate"
      ],
      [
        "Ġph",
        "one"
      ],
      [
        "Ġ",
        "-"
      ],
      [
        "Ġs",
        "uc"
      ],
      [
        "Ġme",
        "et"
      ],
      [
        "Ġbu",
        "sh"
      ],
      [
        "Ġrob",
        "ot"
      ],
      [
        "Ġt",
        "urt"
      ],
      [
        "Ġon",
        "to"
      ],
      [
        "Ġpe",
        "ace"
      ],
      [
        "Ġp",
        "ill"
      ],
      [
        "ep",
        "end"
      ],
      [
        "st",
        "ing"
      ],
      [
        "Ġch",
        "ick"
      ],
      [
        "Ġch",
        "ocolate"
      ],
      [
        "Ġwas",
        "h"
      ],
      [
        "Ġth",
        "in"
      ],
      [
        "Ġwh",
        "ist"
      ],
      [
        "Ġca",
        "ve"
      ],
      [
        "Ġstar",
        "t"
      ],
      [
        "Jo",
        "hn"
      ],
      [
        "Ġcolle",
        "ct"
      ],
      [
        "Ġ",
        "Z"
      ],
      [
        "ĠSo",
        "on"
      ],
      [
        "Ġdre",
        "w"
      ],
      [
        "Ġwonder",
        "ful"
      ],
      [
        "Ġl",
        "ater"
      ],
      [
        "Ġsh",
        "r"
      ],
      [
        "Ġro",
        "pe"
      ],
      [
        "Ġhold",
        "ing"
      ],
      [
        "Ġturt",
        "le"
      ],
      [
        "Ġn",
        "ut"
      ],
      [
        "Ġdec",
        "or"
      ],
      [
        "ĠE",
        "llie"
      ],
      [
        "Ġcarrot",
        "s"
      ],
      [
        "Ġb",
        "ake"
      ],
      [
        "Ġli",
        "ving"
      ],
      [
        "ug",
        "g"
      ],
      [
        "Ġswim",
        "ming"
      ],
      [
        "Ġjun",
        "gle"
      ],
      [
        "re",
        "ss"
      ],
      [
        "Ġp",
        "ile"
      ],
      [
        "Ġpr",
        "ot"
      ],
      [
        "Ġche",
        "st"
      ],
      [
        "ĠEm",
        "ma"
      ],
      [
        "e",
        "my"
      ],
      [
        "Ġco",
        "in"
      ],
      [
        "Ġgre",
        "w"
      ],
      [
        "Ġmo",
        "st"
      ],
      [
        "!",
        "âĢĿ"
      ],
      [
        "Ġm",
        "ind"
      ],
      [
        "Ġm",
        "um"
      ],
      [
        "Ġk",
        "ite"
      ],
      [
        "ĠN",
        "emo"
      ],
      [
        "Ġbuck",
        "et"
      ],
      [
        "Ġpl",
        "ate"
      ],
      [
        "Ġli",
        "ve"
      ],
      [
        "Ġshap",
        "es"
      ],
      [
        "m",
        "er"
      ],
      [
        "Ġpl",
        "ane"
      ],
      [
        "Ġsp",
        "icy"
      ],
      [
        "Ġhe",
        "althy"
      ],
      [
        "Ġsh",
        "ook"
      ],
      [
        "ul",
        "ar"
      ],
      [
        "Ġsp",
        "in"
      ],
      [
        "Ġex",
        "p"
      ],
      [
        "if",
        "e"
      ],
      [
        "Ġgent",
        "ly"
      ],
      [
        "P",
        "lease"
      ],
      [
        "Ġf",
        "ence"
      ],
      [
        "Ġm",
        "ach"
      ],
      [
        "Ġbird",
        "ie"
      ],
      [
        "Ġsmil",
        "es"
      ],
      [
        "ion",
        "s"
      ],
      [
        "ĠTh",
        "ank"
      ],
      [
        "izz",
        "a"
      ],
      [
        "Ġc",
        "e"
      ],
      [
        "Ġsh",
        "ake"
      ],
      [
        "Ġjo",
        "y"
      ],
      [
        "ir",
        "p"
      ],
      [
        "Ġch",
        "ased"
      ],
      [
        "Ġmo",
        "ved"
      ],
      [
        "Ġwhe",
        "el"
      ],
      [
        "it",
        "al"
      ],
      [
        "Ġc",
        "ard"
      ],
      [
        "Ġp",
        "izza"
      ],
      [
        "Ġcl",
        "oth"
      ],
      [
        "Ġjo",
        "ke"
      ],
      [
        "Ġvill",
        "age"
      ],
      [
        "c",
        "om"
      ],
      [
        "Ġso",
        "ld"
      ],
      [
        "Ġho",
        "sp"
      ],
      [
        "ĠJo",
        "e"
      ],
      [
        "Ġcou",
        "ch"
      ],
      [
        "Ġhosp",
        "ital"
      ],
      [
        "Ġc",
        "ir"
      ],
      [
        "Ġc",
        "oo"
      ],
      [
        "Ġp",
        "ract"
      ],
      [
        "Ġz",
        "oom"
      ],
      [
        "i",
        "ally"
      ],
      [
        "o",
        "ve"
      ],
      [
        "Ġa",
        "p"
      ],
      [
        "am",
        "a"
      ],
      [
        "pec",
        "ially"
      ],
      [
        "Ġcon",
        "fused"
      ],
      [
        "Ġes",
        "pecially"
      ],
      [
        "Ġb",
        "an"
      ],
      [
        "Ġte",
        "a"
      ],
      [
        "Ġprom",
        "ise"
      ],
      [
        "Ġhop",
        "ed"
      ],
      [
        ".",
        "âĢĿ"
      ],
      [
        "g",
        "ly"
      ],
      [
        "Ġshe",
        "ll"
      ],
      [
        "Ġkne",
        "e"
      ],
      [
        "er",
        "p"
      ],
      [
        "Ġsa",
        "ved"
      ],
      [
        "Ġu",
        "gly"
      ],
      [
        "oo",
        "se"
      ],
      [
        "Ġal",
        "ong"
      ],
      [
        "um",
        "ber"
      ],
      [
        "Ġgent",
        "le"
      ],
      [
        "ĠBr",
        "own"
      ],
      [
        "Ġd",
        "i"
      ],
      [
        "or",
        "row"
      ],
      [
        "ill",
        "ar"
      ],
      [
        "Ġbuild",
        "ing"
      ],
      [
        "b",
        "ow"
      ],
      [
        "Ġs",
        "er"
      ],
      [
        "Ġp",
        "our"
      ],
      [
        "Ġsh",
        "irt"
      ],
      [
        "Ġcat",
        "erp"
      ],
      [
        "Ġany",
        "one"
      ],
      [
        "Ġhor",
        "se"
      ],
      [
        "Ġcaterp",
        "illar"
      ],
      [
        "or",
        "k"
      ],
      [
        "Ġbu",
        "sy"
      ],
      [
        "Ġshar",
        "p"
      ],
      [
        "Ġn",
        "aught"
      ],
      [
        "Ġsc",
        "ream"
      ],
      [
        "Ġgl",
        "ow"
      ],
      [
        "Ġtast",
        "ed"
      ],
      [
        "Ġque",
        "st"
      ],
      [
        "Ġnaught",
        "y"
      ],
      [
        "B",
        "e"
      ],
      [
        "Ġl",
        "ake"
      ],
      [
        "Ġgr",
        "umpy"
      ],
      [
        "Ġrain",
        "bow"
      ],
      [
        "ĠWh",
        "ile"
      ],
      [
        "os",
        "aur"
      ],
      [
        "Ġtom",
        "orrow"
      ],
      [
        "Ġban",
        "an"
      ],
      [
        "l",
        "ace"
      ],
      [
        "Ġsa",
        "ve"
      ],
      [
        "Ġso",
        "l"
      ],
      [
        "Ġneck",
        "lace"
      ],
      [
        "Ġwa",
        "ve"
      ],
      [
        "it",
        "ch"
      ],
      [
        "Ġl",
        "ucky"
      ],
      [
        "Ġp",
        "an"
      ],
      [
        "er",
        "t"
      ],
      [
        "Ġgra",
        "nd"
      ],
      [
        "Ġcle",
        "ver"
      ],
      [
        "Ġsong",
        "s"
      ],
      [
        "G",
        "ood"
      ],
      [
        "it",
        "y"
      ],
      [
        "Ġre",
        "t"
      ],
      [
        "Ġwr",
        "ite"
      ],
      [
        "Ġdin",
        "osaur"
      ],
      [
        "Ġsmell",
        "ed"
      ],
      [
        "Ġpuzz",
        "le"
      ],
      [
        "Ġcl",
        "own"
      ],
      [
        "Ġv",
        "ase"
      ],
      [
        "Ġl",
        "ad"
      ],
      [
        "Ġj",
        "our"
      ],
      [
        "Ġnear",
        "by"
      ],
      [
        "Ġfruit",
        "s"
      ],
      [
        "Ġque",
        "en"
      ],
      [
        "Ġjour",
        "n"
      ],
      [
        "A",
        "my"
      ],
      [
        "Ġt",
        "id"
      ],
      [
        "Ġs",
        "el"
      ],
      [
        "Ġlad",
        "der"
      ],
      [
        "Ġwor",
        "m"
      ],
      [
        "Ġclean",
        "ed"
      ],
      [
        "Ġsound",
        "s"
      ],
      [
        "Ġche",
        "ered"
      ],
      [
        "p",
        "a"
      ],
      [
        "Ġcray",
        "ons"
      ],
      [
        "Ġmy",
        "ster"
      ],
      [
        "Ġmist",
        "ake"
      ],
      [
        "Ġtid",
        "y"
      ],
      [
        "Ġsc",
        "ar"
      ],
      [
        "Ġint",
        "ere"
      ],
      [
        "ge",
        "st"
      ],
      [
        "Ġret",
        "ur"
      ],
      [
        "J",
        "ack"
      ],
      [
        "w",
        "ork"
      ],
      [
        "ll",
        "o"
      ],
      [
        "Ġfe",
        "ather"
      ],
      [
        "Ġc",
        "alm"
      ],
      [
        "ad",
        "ow"
      ],
      [
        "Ġwho",
        "le"
      ],
      [
        "Ġim",
        "ag"
      ],
      [
        "Ġlem",
        "on"
      ],
      [
        "Ġsel",
        "fish"
      ],
      [
        "N",
        "ow"
      ],
      [
        "w",
        "el"
      ],
      [
        "Ġs",
        "ur"
      ],
      [
        "Ġw",
        "ing"
      ],
      [
        "Ġf",
        "ing"
      ],
      [
        "Ġstar",
        "s"
      ],
      [
        "Ġdraw",
        "ing"
      ],
      [
        "Ġyear",
        "s"
      ],
      [
        "ck",
        "s"
      ],
      [
        "Ġsp",
        "oon"
      ],
      [
        "Ġknow",
        "ing"
      ],
      [
        "Ġspo",
        "il"
      ],
      [
        "M",
        "y"
      ],
      [
        "Ġto",
        "uc"
      ],
      [
        "Ġp",
        "ump"
      ],
      [
        "Ġbutt",
        "on"
      ],
      [
        "Ġslow",
        "ly"
      ],
      [
        "Ġmach",
        "ine"
      ],
      [
        "c",
        "ap"
      ],
      [
        "u",
        "ce"
      ],
      [
        "Ġje",
        "wel"
      ],
      [
        "Ġspl",
        "as"
      ],
      [
        "Ġfan",
        "cy"
      ],
      [
        "Ġp",
        "ri"
      ],
      [
        "ell",
        "a"
      ],
      [
        "ĠR",
        "emy"
      ],
      [
        "Ġwear",
        "ing"
      ],
      [
        "Ġwonder",
        "ed"
      ],
      [
        "ĠS",
        "p"
      ],
      [
        "Ġt",
        "ie"
      ],
      [
        "Ġme",
        "ant"
      ],
      [
        "Ġask",
        "s"
      ],
      [
        "bo",
        "x"
      ],
      [
        "Ġsnow",
        "man"
      ],
      [
        "Ġsmo",
        "oth"
      ],
      [
        "er",
        "ly"
      ],
      [
        "Ġwhen",
        "ever"
      ],
      [
        "Ġgra",
        "b"
      ],
      [
        "Ġdri",
        "ve"
      ],
      [
        "Ġwor",
        "king"
      ],
      [
        "Ġz",
        "oo"
      ],
      [
        "Ġl",
        "ay"
      ],
      [
        "Ġwait",
        "ing"
      ],
      [
        "n",
        "ess"
      ],
      [
        "Ġ",
        "ent"
      ],
      [
        "ch",
        "ing"
      ],
      [
        "Ġgr",
        "oup"
      ],
      [
        "Ġansw",
        "er"
      ],
      [
        "Ġ",
        "ign"
      ],
      [
        "He",
        "y"
      ],
      [
        "Ġtouc",
        "hed"
      ],
      [
        "Ġbug",
        "s"
      ],
      [
        "Ġpower",
        "ful"
      ],
      [
        "Ġb",
        "one"
      ],
      [
        "Ġhe",
        "llo"
      ],
      [
        "Ġsa",
        "l"
      ],
      [
        "et",
        "er"
      ],
      [
        "Ġstor",
        "ies"
      ],
      [
        "o",
        "st"
      ],
      [
        "ll",
        "a"
      ],
      [
        "Ġpre",
        "s"
      ],
      [
        "Ġs",
        "u"
      ],
      [
        "on",
        "t"
      ],
      [
        "Ġtight",
        "ly"
      ],
      [
        "Ġpoin",
        "ted"
      ],
      [
        "o",
        "nd"
      ],
      [
        "Ġb",
        "ark"
      ],
      [
        "Ġg",
        "ather"
      ],
      [
        "Ġwh",
        "ich"
      ],
      [
        "Ġtw",
        "ins"
      ],
      [
        "Ġac",
        "ross"
      ],
      [
        "Ġunderst",
        "ood"
      ],
      [
        "Ġpretend",
        "ed"
      ],
      [
        "Ġintere",
        "sting"
      ],
      [
        "ĠB",
        "unny"
      ],
      [
        "Ġse",
        "at"
      ],
      [
        "Ġfr",
        "ont"
      ],
      [
        "m",
        "p"
      ],
      [
        "Ġbre",
        "ad"
      ],
      [
        "Ġba",
        "ld"
      ],
      [
        "Ġwhist",
        "le"
      ],
      [
        "t",
        "en"
      ],
      [
        "Ġpu",
        "sh"
      ],
      [
        "Ġprin",
        "ce"
      ],
      [
        "Ġs",
        "our"
      ],
      [
        "im",
        "ed"
      ],
      [
        "Ġe",
        "mp"
      ],
      [
        "Ġemp",
        "ty"
      ],
      [
        "Ġsp",
        "e"
      ],
      [
        "m",
        "ent"
      ],
      [
        "ĠL",
        "ila"
      ],
      [
        "ens",
        "ive"
      ],
      [
        "e",
        "o"
      ],
      [
        "Ġp",
        "ath"
      ],
      [
        "et",
        "h"
      ],
      [
        "un",
        "k"
      ],
      [
        "Ġcar",
        "t"
      ],
      [
        "Ġsl",
        "id"
      ],
      [
        "Ġsleep",
        "y"
      ],
      [
        "Ġcreat",
        "ive"
      ],
      [
        "Ġexp",
        "ensive"
      ],
      [
        "Ġy",
        "og"
      ],
      [
        "Ġbo",
        "ss"
      ],
      [
        "Ġstr",
        "ing"
      ],
      [
        "Ġclean",
        "ing"
      ],
      [
        "Ġtrou",
        "ble"
      ],
      [
        "Ġpres",
        "ent"
      ],
      [
        "l",
        "ower"
      ],
      [
        "ĠT",
        "V"
      ],
      [
        "Ġst",
        "one"
      ],
      [
        "Ġtoo",
        "l"
      ],
      [
        "Ġmo",
        "v"
      ],
      [
        "Ġfam",
        "ous"
      ],
      [
        "aught",
        "er"
      ],
      [
        "Ġh",
        "um"
      ],
      [
        "im",
        "i"
      ],
      [
        "Ġst",
        "ret"
      ],
      [
        "if",
        "f"
      ],
      [
        "Ġhug",
        "e"
      ],
      [
        "Ġfin",
        "ish"
      ],
      [
        "ĠTweet",
        "ie"
      ],
      [
        "Ġsug",
        "ar"
      ],
      [
        "Ġprot",
        "ect"
      ],
      [
        "Ġa",
        "v"
      ],
      [
        "Ġwa",
        "nd"
      ],
      [
        "Ġfor",
        "get"
      ],
      [
        "Ġch",
        "ange"
      ],
      [
        "Ġsun",
        "sh"
      ],
      [
        "air",
        "s"
      ],
      [
        "Ġsunsh",
        "ine"
      ],
      [
        "y",
        "al"
      ],
      [
        "Ġli",
        "ft"
      ],
      [
        "Ġrun",
        "s"
      ],
      [
        "Ġjump",
        "ing"
      ],
      [
        "Ġpol",
        "ice"
      ],
      [
        "ĠGra",
        "ndma"
      ],
      [
        "Ġnot",
        "e"
      ],
      [
        "Ġtow",
        "el"
      ],
      [
        "Ġche",
        "w"
      ],
      [
        "Ġgi",
        "ant"
      ],
      [
        "T",
        "o"
      ],
      [
        "Ġs",
        "ort"
      ],
      [
        "Ġbe",
        "ll"
      ],
      [
        "Ġsp",
        "ace"
      ],
      [
        "v",
        "ous"
      ],
      [
        "Ġg",
        "en"
      ],
      [
        "Ġfeel",
        "s"
      ],
      [
        "ic",
        "ine"
      ],
      [
        "iz",
        "zy"
      ],
      [
        "Ġrem",
        "ind"
      ],
      [
        "Ġexpl",
        "or"
      ],
      [
        "Ġpa",
        "ss"
      ],
      [
        "Ġc",
        "ro"
      ],
      [
        "ar",
        "s"
      ],
      [
        "Ġe",
        "mb"
      ],
      [
        "get",
        "able"
      ],
      [
        "op",
        "e"
      ],
      [
        "Ġta",
        "ught"
      ],
      [
        "Ġve",
        "getable"
      ],
      [
        "Ġmed",
        "icine"
      ],
      [
        "Ġsu",
        "pp"
      ],
      [
        "Ġlo",
        "yal"
      ],
      [
        "Ġplace",
        "s"
      ],
      [
        "a",
        "z"
      ],
      [
        "ar",
        "ra"
      ],
      [
        "ĠB",
        "u"
      ],
      [
        "ul",
        "t"
      ],
      [
        "Ġemb",
        "arra"
      ],
      [
        "Ġm",
        "ot"
      ],
      [
        "Ġsp",
        "ray"
      ],
      [
        "Ġpo",
        "or"
      ],
      [
        "Ġthink",
        "s"
      ],
      [
        "Ġp",
        "ool"
      ],
      [
        "ĠJohn",
        "ny"
      ],
      [
        "Ġpers",
        "on"
      ],
      [
        "Ġpeace",
        "ful"
      ],
      [
        "Ġpill",
        "ow"
      ],
      [
        "Ġpump",
        "kin"
      ],
      [
        "e",
        "st"
      ],
      [
        "Ġso",
        "ap"
      ],
      [
        "Ġre",
        "g"
      ],
      [
        "Ġj",
        "ack"
      ],
      [
        "Ġla",
        "w"
      ],
      [
        "Ġla",
        "zy"
      ],
      [
        "Ġexc",
        "la"
      ],
      [
        "Ġche",
        "er"
      ],
      [
        "Ġcla",
        "ss"
      ],
      [
        "Ġexcla",
        "imed"
      ],
      [
        "Ġm",
        "ountain"
      ],
      [
        "Ġgr",
        "ay"
      ],
      [
        "ere",
        "al"
      ],
      [
        "oo",
        "p"
      ],
      [
        "ĠB",
        "ella"
      ],
      [
        "ur",
        "se"
      ],
      [
        "Ġf",
        "le"
      ],
      [
        "Ġshe",
        "lf"
      ],
      [
        "one",
        "st"
      ],
      [
        "Ġh",
        "onest"
      ],
      [
        "Ġc",
        "ereal"
      ],
      [
        "Ġche",
        "ck"
      ],
      [
        "Ġlove",
        "ly"
      ],
      [
        "Ġarm",
        "s"
      ],
      [
        "Ġes",
        "cap"
      ],
      [
        "Ġp",
        "ay"
      ],
      [
        "Ġr",
        "id"
      ],
      [
        "ĠL",
        "eo"
      ],
      [
        "pec",
        "t"
      ],
      [
        "Ġboss",
        "y"
      ],
      [
        "Ġjack",
        "et"
      ],
      [
        "Ġca",
        "ge"
      ],
      [
        "Ġorgan",
        "ized"
      ],
      [
        "is",
        "a"
      ],
      [
        "Ġnot",
        "hing"
      ],
      [
        "Ġsc",
        "o"
      ],
      [
        "Ġball",
        "s"
      ],
      [
        "Ġbea",
        "k"
      ],
      [
        "Ben",
        "ny"
      ],
      [
        "Ġsnack",
        "s"
      ],
      [
        "d",
        "ge"
      ],
      [
        "Ġd",
        "aughter"
      ],
      [
        "Ġn",
        "er"
      ],
      [
        "Ġhar",
        "m"
      ],
      [
        "f",
        "ast"
      ],
      [
        "o",
        "ppy"
      ],
      [
        "r",
        "ated"
      ],
      [
        "Ġt",
        "ent"
      ],
      [
        "Ġb",
        "al"
      ],
      [
        "Ġd",
        "ough"
      ],
      [
        "Ġsc",
        "re"
      ],
      [
        "Ġru",
        "de"
      ],
      [
        "Ġste",
        "pped"
      ],
      [
        "Ġfight",
        "ing"
      ],
      [
        "Ġner",
        "vous"
      ],
      [
        "Ġv",
        "an"
      ],
      [
        "Ġdan",
        "cing"
      ],
      [
        "Ġbreak",
        "fast"
      ],
      [
        "Ġmix",
        "ed"
      ],
      [
        "Ġsuc",
        "cess"
      ],
      [
        "Ġe",
        "ag"
      ],
      [
        "Ġon",
        "es"
      ],
      [
        "Ġcar",
        "ried"
      ],
      [
        "ĠJ",
        "en"
      ],
      [
        "Ġmo",
        "on"
      ],
      [
        "Ġfr",
        "ust"
      ],
      [
        "b",
        "in"
      ],
      [
        "w",
        "ard"
      ],
      [
        "Ġf",
        "il"
      ],
      [
        "Ġca",
        "bin"
      ],
      [
        "Ġno",
        "ises"
      ],
      [
        "Ġpa",
        "ssed"
      ],
      [
        "Ġst",
        "ir"
      ],
      [
        "Ġw",
        "ip"
      ],
      [
        "Ġf",
        "ake"
      ],
      [
        "Ġas",
        "h"
      ],
      [
        "Ġmat",
        "ter"
      ],
      [
        "Ġleg",
        "s"
      ],
      [
        "Ġscar",
        "f"
      ],
      [
        "Ġfrust",
        "rated"
      ],
      [
        "Ġw",
        "ild"
      ],
      [
        "Ġm",
        "aybe"
      ],
      [
        "am",
        "ed"
      ],
      [
        "Ġpr",
        "ay"
      ],
      [
        "Ġhop",
        "e"
      ],
      [
        "Ġgen",
        "er"
      ],
      [
        "l",
        "ph"
      ],
      [
        "n",
        "ot"
      ],
      [
        "Ġto",
        "ug"
      ],
      [
        "Ġc",
        "her"
      ],
      [
        "Ġwe",
        "althy"
      ],
      [
        "Ġdo",
        "lph"
      ],
      [
        "ĠM",
        "imi"
      ],
      [
        "ĠJ",
        "erry"
      ],
      [
        "ĠR",
        "ed"
      ],
      [
        "Ġsweet",
        "ie"
      ],
      [
        "Ġcan",
        "not"
      ],
      [
        "Ġex",
        "am"
      ],
      [
        "ie",
        "ved"
      ],
      [
        "Ġch",
        "ase"
      ],
      [
        "ĠBrown",
        "ie"
      ],
      [
        "Ġh",
        "ur"
      ],
      [
        "Ġfl",
        "ag"
      ],
      [
        "Ġte",
        "st"
      ],
      [
        "Ġri",
        "ch"
      ],
      [
        "Ġclos",
        "et"
      ],
      [
        "Ġmyster",
        "ious"
      ],
      [
        "Ġembarra",
        "ssed"
      ],
      [
        "Ġtoug",
        "h"
      ],
      [
        "Ġwe",
        "ak"
      ],
      [
        "Ġbor",
        "row"
      ],
      [
        "Ġ",
        "On"
      ],
      [
        "Ġhug",
        "s"
      ],
      [
        "Ġrock",
        "et"
      ],
      [
        "Ġde",
        "st"
      ],
      [
        "Ġduck",
        "s"
      ],
      [
        "Ġd",
        "ig"
      ],
      [
        "ce",
        "let"
      ],
      [
        "Ġst",
        "ood"
      ],
      [
        "itt",
        "er"
      ],
      [
        "al",
        "ous"
      ],
      [
        "Ġsp",
        "r"
      ],
      [
        "Ġbl",
        "ow"
      ],
      [
        "Ġbra",
        "celet"
      ],
      [
        "Ġdis",
        "co"
      ],
      [
        "ĠDad",
        "dy"
      ],
      [
        "Ġvegetable",
        "s"
      ],
      [
        "ĠM",
        "y"
      ],
      [
        "Ġgo",
        "ld"
      ],
      [
        "Ġcu",
        "be"
      ],
      [
        "Ġstick",
        "s"
      ],
      [
        "Ġje",
        "alous"
      ],
      [
        "Ġcloud",
        "s"
      ],
      [
        "ĠS",
        "m"
      ],
      [
        "Ġtr",
        "ust"
      ],
      [
        "Ġmo",
        "ving"
      ],
      [
        "Ġpol",
        "ite"
      ],
      [
        "Ġspl",
        "ash"
      ],
      [
        "Ġbelong",
        "ed"
      ],
      [
        "Ġf",
        "rag"
      ],
      [
        "Ġc",
        "or"
      ],
      [
        "le",
        "br"
      ],
      [
        "Ġno",
        "isy"
      ],
      [
        "Ġte",
        "eth"
      ],
      [
        "Ġbre",
        "ath"
      ],
      [
        "Ġface",
        "s"
      ],
      [
        "Ġdr",
        "ank"
      ],
      [
        "Ġrel",
        "ieved"
      ],
      [
        "Ġg",
        "un"
      ],
      [
        "an",
        "ger"
      ],
      [
        "Ġr",
        "ough"
      ],
      [
        "omet",
        "imes"
      ],
      [
        "Ġad",
        "m"
      ],
      [
        "Ġtom",
        "ato"
      ],
      [
        "Ġchick",
        "en"
      ],
      [
        "Ġmot",
        "or"
      ],
      [
        "Ġfrag",
        "ile"
      ],
      [
        "it",
        "ing"
      ],
      [
        "Ġe",
        "vent"
      ],
      [
        "Ġsw",
        "ord"
      ],
      [
        "Ġbu",
        "b"
      ],
      [
        "Ġac",
        "orn"
      ],
      [
        "Ġcover",
        "ed"
      ],
      [
        "Ġeas",
        "y"
      ],
      [
        "Ġce",
        "lebr"
      ],
      [
        "Ġgener",
        "ous"
      ],
      [
        "A",
        "nd"
      ],
      [
        "l",
        "ves"
      ],
      [
        "Ġr",
        "ing"
      ],
      [
        "ĠB",
        "e"
      ],
      [
        "Ġse",
        "ll"
      ],
      [
        "ĠF",
        "red"
      ],
      [
        "ĠJ",
        "ill"
      ],
      [
        "Ġte",
        "am"
      ],
      [
        "Ġpar",
        "ade"
      ],
      [
        "ĠTo",
        "gether"
      ],
      [
        "Ġmov",
        "ie"
      ],
      [
        "O",
        "K"
      ],
      [
        "Ġd",
        "izzy"
      ],
      [
        "is",
        "p"
      ],
      [
        "Ġe",
        "ld"
      ],
      [
        "Ġsp",
        "illed"
      ],
      [
        "Ġcr",
        "own"
      ],
      [
        "Ġres",
        "c"
      ],
      [
        "?",
        "âĢĿ"
      ],
      [
        "c",
        "orn"
      ],
      [
        "on",
        "es"
      ],
      [
        "Ġsc",
        "are"
      ],
      [
        "Ġsk",
        "ip"
      ],
      [
        "Ġstr",
        "anger"
      ],
      [
        "ct",
        "op"
      ],
      [
        "Ġplant",
        "s"
      ],
      [
        "Ġboun",
        "ce"
      ],
      [
        "Ġsa",
        "uce"
      ],
      [
        "Ġro",
        "ar"
      ],
      [
        "Ġme",
        "al"
      ],
      [
        "Ġpri",
        "ze"
      ],
      [
        "k",
        "n"
      ],
      [
        "Ġt",
        "ank"
      ],
      [
        "Ġb",
        "er"
      ],
      [
        "Ġc",
        "orn"
      ],
      [
        "Ġn",
        "umber"
      ],
      [
        "Ġlo",
        "ck"
      ],
      [
        "Ġpo",
        "em"
      ],
      [
        "Ġsmell",
        "y"
      ],
      [
        "Ġsug",
        "gest"
      ],
      [
        "Ġsplas",
        "hed"
      ],
      [
        "Ġber",
        "ries"
      ],
      [
        "p",
        "ack"
      ],
      [
        "Ġp",
        "ir"
      ],
      [
        "ar",
        "ge"
      ],
      [
        "Ġg",
        "igg"
      ],
      [
        "or",
        "y"
      ],
      [
        "ig",
        "ator"
      ],
      [
        "Ġcom",
        "es"
      ],
      [
        "irp",
        "y"
      ],
      [
        "kn",
        "own"
      ],
      [
        "B",
        "illy"
      ],
      [
        "a",
        "w"
      ],
      [
        "Ġt",
        "ick"
      ],
      [
        "Ġst",
        "uff"
      ],
      [
        "Ġla",
        "st"
      ],
      [
        "Ġun",
        "known"
      ],
      [
        "Ġpain",
        "ting"
      ],
      [
        "Ġcr",
        "ack"
      ],
      [
        "Ġhappen",
        "ing"
      ],
      [
        "S",
        "t"
      ],
      [
        "p",
        "es"
      ],
      [
        "Ġw",
        "om"
      ],
      [
        "Ġl",
        "ine"
      ],
      [
        "Ġha",
        "m"
      ],
      [
        "Ġha",
        "ng"
      ],
      [
        "Ġst",
        "raw"
      ],
      [
        "Ġwh",
        "ale"
      ],
      [
        "Ġloud",
        "ly"
      ],
      [
        "Ġpop",
        "corn"
      ],
[...]
